<unk>	0
<s>	0
</s>	0
▁t	-0
he	-1
▁a	-2
in	-3
▁the	-4
▁w	-5
▁s	-6
▁o	-7
re	-8
nd	-9
▁h	-10
er	-11
ou	-12
▁b	-13
is	-14
at	-15
ed	-16
▁m	-17
▁f	-18
it	-19
▁c	-20
en	-21
▁and	-22
▁of	-23
on	-24
▁to	-25
ing	-26
es	-27
▁th	-28
▁d	-29
or	-30
an	-31
ll	-32
ar	-33
▁p	-34
as	-35
▁he	-36
▁in	-37
▁l	-38
▁n	-39
▁I	-40
om	-41
▁ha	-42
le	-43
▁g	-44
▁be	-45
ot	-46
▁wh	-47
ic	-48
ow	-49
▁e	-50
im	-51
id	-52
▁T	-53
▁y	-54
ut	-55
se	-56
ve	-57
st	-58
ly	-59
▁that	-60
▁on	-61
▁re	-62
ld	-63
▁was	-64
ent	-65
▁his	-66
▁you	-67
ce	-68
gh	-69
ith	-70
et	-71
▁it	-72
ay	-73
ion	-74
al	-75
▁with	-76
ir	-77
▁u	-78
▁A	-79
ver	-80
ad	-81
▁as	-82
▁is	-83
ur	-84
▁st	-85
▁for	-86
▁not	-87
▁r	-88
▁The	-89
ght	-90
▁we	-91
▁sa	-92
▁had	-93
her	-94
ch	-95
ill	-96
▁an	-97
▁at	-98
▁him	-99
▁M	-100
▁H	-101
ain	-102
oo	-103
os	-104
ri	-105
ct	-106
▁se	-107
▁sh	-108
▁her	-109
am	-110
ich	-111
▁S	-112
ter	-113
▁me	-114
ould	-115
▁W	-116
ke	-117
all	-118
if	-119
▁which	-120
ess	-121
red	-122
▁de	-123
▁so	-124
us	-125
il	-126
▁fr	-127
▁B	-128
▁have	-129
ight	-130
ro	-131
▁C	-132
▁all	-133
ore	-134
▁my	-135
▁su	-136
▁but	-137
▁said	-138
pe	-139
▁P	-140
ac	-141
▁by	-142
ard	-143
▁con	-144
▁who	-145
ome	-146
▁from	-147
▁k	-148
ant	-149
▁this	-150
ul	-151
qu	-152
ge	-153
▁do	-154
and	-155
▁whe	-156
res	-157
th	-158
▁she	-159
▁v	-160
ble	-161
▁or	-162
▁ex	-163
nt	-164
ous	-165
ust	-166
▁man	-167
ers	-168
ap	-169
▁they	-170
est	-171
▁one	-172
▁are	-173
sel	-174
▁ne	-175
▁up	-176
▁He	-177
▁were	-178
▁N	-179
▁al	-180
ist	-181
ast	-182
our	-183
▁fe	-184
▁ch	-185
em	-186
▁li	-187
pp	-188
ol	-189
ound	-190
very	-191
▁will	-192
ation	-193
▁them	-194
ind	-195
▁D	-196
▁no	-197
ong	-198
ra	-199
out	-200
▁F	-201
ood	-202
art	-203
▁And	-204
▁int	-205
▁there	-206
ie	-207
▁kn	-208
ate	-209
ak	-210
▁le	-211
▁O	-212
▁ar	-213
un	-214
self	-215
one	-216
▁com	-217
um	-218
▁their	-219
▁G	-220
ig	-221
ort	-222
▁Th	-223
▁ab	-224
▁go	-225
ost	-226
ame	-227
▁when	-228
ven	-229
ose	-230
▁j	-231
au	-232
▁been	-233
▁L	-234
ther	-235
▁your	-236
ked	-237
▁would	-238
▁what	-239
▁out	-240
ough	-241
▁wor	-242
hed	-243
▁Y	-244
▁tr	-245
ide	-246
▁un	-247
ell	-248
▁ag	-249
▁E	-250
▁sp	-251
ity	-252
reat	-253
te	-254
ive	-255
own	-256
ine	-257
▁am	-258
ck	-259
urn	-260
▁R	-261
▁pl	-262
▁more	-263
▁Wh	-264
ount	-265
ace	-266
od	-267
ure	-268
ep	-269
ved	-270
pl	-271
▁qu	-272
ag	-273
▁if	-274
ack	-275
itt	-276
ass	-277
▁into	-278
hing	-279
▁It	-280
ice	-281
op	-282
▁then	-283
▁pr	-284
el	-285
▁pro	-286
nder	-287
ance	-288
▁other	-289
▁tim	-290
▁V	-291
able	-292
ake	-293
▁af	-294
▁some	-295
▁has	-296
▁any	-297
▁tw	-298
▁But	-299
ry	-300
pt	-301
▁im	-302
ars	-303
▁br	-304
▁know	-305
▁could	-306
▁now	-307
ue	-308
▁hand	-309
ies	-310
ire	-311
ab	-312
▁can	-313
ove	-314
▁ad	-315
ect	-316
▁like	-317
▁J	-318
▁cl	-319
▁did	-320
bos	-321
▁us	-322
ought	-323
▁ro	-324
▁bl	-325
▁<	-326
▁gr	-327
other	-328
way	-329
are	-330
▁dis	-331
ite	-332
ade	-333
▁only	-334
▁en	-335
▁see	-336
▁loo	-337
▁say	-338
ress	-339
cc	-340
▁again	-341
fore	-342
ied	-343
ence	-344
ang	-345
ather	-346
age	-347
ving	-348
ree	-349
▁very	-350
ert	-351
▁than	-352
..	-353
▁over	-354
wn	-355
▁fl	-356
▁time	-357
ious	-358
ier	-359
oss	-360
▁too	-361
▁po	-362
▁day	-363
▁should	-364
ile	-365
ish	-366
ink	-367
▁about	-368
▁off	-369
ond	-370
ered	-371
ment	-372
ings	-373
ated	-374
▁our	-375
ach	-376
ans	-377
ud	-378
ves	-379
ally	-380
▁must	-381
per	-382
▁himself	-383
ren	-384
▁fir	-385
▁every	-386
▁rem	-387
▁ey	-388
▁great	-389
▁long	-390
▁thr	-391
ary	-392
ward	-393
ful	-394
▁two	-395
ff	-396
me	-397
ittle	-398
▁how	-399
▁str	-400
▁per	-401
▁good	-402
▁sm	-403
▁pe	-404
▁des	-405
ness	-406
▁may	-407
▁under	-408
ions	-409
ci	-410
▁before	-411
ath	-412
▁down	-413
ife	-414
▁little	-415
▁pre	-416
anc	-417
▁old	-418
▁gl	-419
ors	-420
iz	-421
▁its	-422
ft	-423
▁cont	-424
ont	-425
▁fo	-426
ave	-427
ince	-428
▁after	-429
▁first	-430
ise	-431
▁count	-432
end	-433
▁beg	-434
led	-435
▁thought	-436
▁seem	-437
ull	-438
▁spe	-439
uch	-440
▁these	-441
ds	-442
▁You	-443
cl	-444
▁upon	-445
▁cr	-446
▁even	-447
▁arm	-448
▁made	-449
▁In	-450
▁men	-451
▁fa	-452
ried	-453
▁such	-454
ild	-455
▁bec	-456
ng	-457
▁shall	-458
ign	-459
▁co	-460
ons	-461
▁where	-462
▁let	-463
▁just	-464
▁pass	-465
ip	-466
▁head	-467
▁went	-468
ouse	-469
▁way	-470
king	-471
▁own	-472
▁came	-473
▁ret	-474
▁What	-475
▁eyes	-476
hen	-477
rew	-478
orn	-479
▁ob	-480
▁res	-481
▁part	-482
ks	-483
ened	-484
▁come	-485
▁ent	-486
▁fri	-487
▁bo	-488
▁turn	-489
▁Then	-490
▁sc	-491
▁well	-492
▁still	-493
▁back	-494
▁much	-495
ats	-496
▁think	-497
▁here	-498
▁She	-499
llow	-500
omet	-501
▁those	-502
▁On	-503
▁bet	-504
▁without	-505
int	-506
▁same	-507
ber	-508
▁op	-509
ady	-510
▁through	-511
ty	-512
▁att	-513
ord	-514
we	-515
ible	-516
ick	-517
▁might	-518
▁This	-519
▁imp	-520
▁comp	-521
▁ho	-522
▁away	-523
▁ap	-524
▁ind	-525
▁sl	-526
▁house	-527
eos	-528
iv	-529
▁never	-530
▁acc	-531
ily	-532
ared	-533
▁Pr	-534
ark	-535
▁Ch	-536
▁father	-537
▁comm	-538
▁There	-539
ens	-540
ale	-541
▁young	-542
▁cons	-543
▁car	-544
▁life	-545
ase	-546
▁somet	-547
ause	-548
▁pres	-549
aking	-550
▁last	-551
ian	-552
pect	-553
▁St	-554
▁call	-555
ER	-556
thing	-557
▁happ	-558
less	-559
air	-560
hes	-561
▁ser	-562
ean	-563
▁nothing	-564
▁ye	-565
oth	-566
oment	-567
▁being	-568
cess	-569
▁moment	-570
▁friend	-571
av	-572
▁most	-573
▁saw	-574
▁No	-575
▁They	-576
▁wr	-577
▁lo	-578
ov	-579
▁bel	-580
▁night	-581
▁room	-582
▁make	-583
bl	-584
▁door	-585
▁wat	-586
ory	-587
arm	-588
▁tell	-589
▁ord	-590
▁app	-591
▁left	-592
▁end	-593
ult	-594
▁another	-595
▁mar	-596
fe	-597
man	-598
▁seemed	-599
▁took	-600
▁Al	-601
ener	-602
▁repl	-603
▁dist	-604
▁face	-605
▁vo	-606
▁K	-607
ys	-608
▁At	-609
atter	-610
▁em	-611
ained	-612
▁light	-613
vent	-614
ced	-615
▁rep	-616
▁get	-617
▁When	-618
▁once	-619
.<	-620
▁As	-621
▁right	-622
▁though	-623
▁ke	-624
▁1	-625
lt	-626
ict	-627
▁take	-628
▁Yes	-629
ished	-630
orm	-631
▁rec	-632
▁return	-633
ertain	-634
▁child	-635
▁found	-636
▁yet	-637
ret	-638
▁heard	-639
row	-640
ix	-641
igh	-642
▁form	-643
ants	-644
▁appe	-645
wards	-646
▁while	-647
▁cour	-648
ever	-649
ction	-650
▁te	-651
▁wom	-652
ently	-653
ew	-654
iss	-655
▁We	-656
▁Mr	-657
so	-658
AP	-659
ither	-660
aint	-661
ari	-662
▁replied	-663
ef	-664
amp	-665
▁looked	-666
TER	-667
ru	-668
▁asked	-669
▁three	-670
▁ple	-671
og	-672
den	-673
ock	-674
aught	-675
▁inst	-676
ople	-677
▁heart	-678
▁ear	-679
▁So	-680
▁Pier	-681
▁exp	-682
sw	-683
▁wa	-684
▁sw	-685
▁hands	-686
ition	-687
▁mind	-688
▁began	-689
▁sec	-690
ways	-691
oy	-692
▁whole	-693
▁place	-694
▁pers	-695
▁whom	-696
▁something	-697
▁CH	-698
ations	-699
▁poss	-700
▁That	-701
▁side	-702
▁wind	-703
▁la	-704
APTER	-705
▁round	-706
ha	-707
ower	-708
▁ter	-709
lf	-710
▁feel	-711
ject	-712
▁CHAPTER	-713
▁put	-714
▁love	-715
▁answ	-716
▁people	-717
▁seen	-718
▁"	-719
▁U	-720
ange	-721
ched	-722
ls	-723
▁rest	-724
▁sil	-725
▁ass	-726
▁inf	-727
ps	-728
▁Fr	-729
▁gi	-730
ning	-731
▁many	-732
▁gener	-733
▁gu	-734
▁add	-735
▁always	-736
▁follow	-737
▁set	-738
▁supp	-739
▁Pierre	-740
▁sur	-741
▁underst	-742
▁look	-743
▁dra	-744
ows	-745
oke	-746
▁ac	-747
▁give	-748
▁ins	-749
▁war	-750
▁Val	-751
▁want	-752
▁To	-753
▁Well	-754
▁sou	-755
▁beh	-756
▁felt	-757
▁also	-758
ail	-759
ired	-760
▁each	-761
▁If	-762
here	-763
▁reg	-764
▁tre	-765
rist	-766
uck	-767
▁hor	-768
▁nat	-769
▁sat	-770
▁against	-771
▁sle	-772
▁ever	-773
get	-774
cept	-775
aken	-776
▁cap	-777
▁soon	-778
▁new	-779
▁find	-780
▁conf	-781
▁tal	-782
ised	-783
ook	-784
ief	-785
▁bre	-786
▁having	-787
ined	-788
▁His	-789
▁dif	-790
▁point	-791
▁ev	-792
most	-793
les	-794
▁voice	-795
ating	-796
ield	-797
iness	-798
▁things	-799
ged	-800
▁Oh	-801
ner	-802
▁dear	-803
act	-804
att	-805
ody	-806
▁going	-807
▁told	-808
als	-809
▁aff	-810
▁My	-811
▁For	-812
▁Prince	-813
▁words	-814
▁cann	-815
▁thing	-816
▁near	-817
▁God	-818
...	-819
▁mother	-820
ple	-821
vers	-822
aps	-823
▁hu	-824
▁turned	-825
cy	-826
ey	-827
▁name	-828
▁far	-829
▁pur	-830
li	-831
▁sub	-832
▁Ah	-833
▁done	-834
ern	-835
▁death	-836
▁pleas	-837
ates	-838
▁occ	-839
az	-840
▁because	-841
▁son	-842
ical	-843
cei	-844
ole	-845
▁Be	-846
ting	-847
▁world	-848
▁certain	-849
eth	-850
ween	-851
▁mon	-852
rench	-853
ank	-854
ute	-855
▁both	-856
▁How	-857
ides	-858
▁cle	-859
▁Mad	-860
▁quite	-861
▁fall	-862
▁inter	-863
▁hour	-864
ister	-865
uss	-866
ited	-867
▁ship	-868
▁cried	-869
▁hum	-870
ung	-871
▁rel	-872
ery	-873
▁morn	-874
▁dr	-875
ling	-876
▁ref	-877
▁read	-878
osed	-879
ins	-880
uth	-881
▁does	-882
▁myself	-883
▁between	-884
▁Now	-885
▁adv	-886
▁knew	-887
ying	-888
its	-889
oub	-890
ial	-891
oud	-892
up	-893
▁present	-894
aut	-895
ains	-896
selves	-897
men	-898
rest	-899
▁vis	-900
▁bed	-901
▁contin	-902
aven	-903
▁ste	-904
▁morning	-905
▁ide	-906
▁called	-907
▁inc	-908
▁fore	-909
ets	-910
▁hear	-911
▁word	-912
▁mo	-913
▁An	-914
▁sk	-915
ib	-916
ued	-917
ures	-918
▁dead	-919
ured	-920
▁nor	-921
▁full	-922
▁open	-923
▁order	-924
ott	-925
xt	-926
arius	-927
dden	-928
▁French	-929
pped	-930
▁years	-931
▁el	-932
▁bar	-933
▁stand	-934
▁sort	-935
▁kind	-936
▁work	-937
ug	-938
▁Mor	-939
oc	-940
ressed	-941
▁towards	-942
rave	-943
ason	-944
▁hel	-945
▁gave	-946
▁home	-947
▁ph	-948
▁All	-949
▁half	-950
▁Mon	-951
ering	-952
▁Marius	-953
▁act	-954
▁among	-955
▁sudden	-956
owed	-957
▁care	-958
▁understand	-959
▁mean	-960
▁fam	-961
▁quest	-962
▁cannot	-963
▁hard	-964
oun	-965
▁poor	-966
ual	-967
▁dark	-968
ention	-969
cri	-970
▁passed	-971
ular	-972
▁behind	-973
arge	-974
▁almost	-975
▁few	-976
▁hon	-977
ces	-978
▁air	-979
▁sir	-980
▁four	-981
ene	-982
▁herself	-983
ready	-984
▁matter	-985
▁gir	-986
▁woman	-987
▁true	-988
▁stood	-989
▁dre	-990
ts	-991
▁got	-992
▁others	-993
▁aw	-994
▁che	-995
▁since	-996
▁lay	-997
▁soul	-998
▁del	-999
▁disc	-1000
▁anything	-1001
▁suff	-1002
▁alone	-1003
▁arms	-1004
▁thy	-1005
▁sound	-1006
▁sent	-1007
▁taken	-1008
▁es	-1009
▁cur	-1010
▁thus	-1011
▁already	-1012
▁sun	-1013
ached	-1014
▁Nats	-1015
▁better	-1016
aced	-1017
▁speak	-1018
▁stre	-1019
▁belie	-1020
▁wal	-1021
ub	-1022
ted	-1023
▁sim	-1024
▁bro	-1025
▁serv	-1026
▁sold	-1027
uc	-1028
▁black	-1029
II	-1030
▁letter	-1031
▁best	-1032
▁dire	-1033
▁sing	-1034
ceived	-1035
ents	-1036
▁fire	-1037
▁min	-1038
▁sign	-1039
▁days	-1040
▁small	-1041
used	-1042
▁fear	-1043
gth	-1044
▁wall	-1045
▁Jean	-1046
▁sleep	-1047
▁offic	-1048
▁ra	-1049
▁With	-1050
▁longer	-1051
aster	-1052
▁person	-1053
illed	-1054
old	-1055
orrow	-1056
▁dont	-1057
haps	-1058
▁inv	-1059
▁fell	-1060
▁thir	-1061
▁Andrew	-1062
tain	-1063
▁Why	-1064
▁whose	-1065
▁heaven	-1066
▁prin	-1067
▁Natsha	-1068
rel	-1069
▁dep	-1070
▁power	-1071
med	-1072
▁One	-1073
ably	-1074
▁fur	-1075
▁white	-1076
▁mis	-1077
▁Vill	-1078
▁cor	-1079
ully	-1080
▁beaut	-1081
▁Monte	-1082
bert	-1083
tend	-1084
▁Crist	-1085
▁command	-1086
▁Em	-1087
aughter	-1088
▁eff	-1089
▁along	-1090
▁Do	-1091
ately	-1092
▁everything	-1093
▁Rost	-1094
ph	-1095
ized	-1096
ians	-1097
▁ran	-1098
▁water	-1099
eed	-1100
▁gent	-1101
▁brought	-1102
▁however	-1103
uring	-1104
▁fact	-1105
ss	-1106
efort	-1107
HE	-1108
na	-1109
aring	-1110
irt	-1111
▁less	-1112
▁ground	-1113
▁Valj	-1114
▁till	-1115
▁saying	-1116
▁Villefort	-1117
oset	-1118
▁art	-1119
▁Cristo	-1120
aris	-1121
pr	-1122
aces	-1123
▁army	-1124
▁express	-1125
ash	-1126
▁doub	-1127
ety	-1128
▁run	-1129
▁sea	-1130
▁high	-1131
▁pol	-1132
▁X	-1133
▁red	-1134
ia	-1135
▁reason	-1136
▁cond	-1137
▁real	-1138
aid	-1139
▁perf	-1140
ater	-1141
▁general	-1142
▁2	-1143
riage	-1144
▁batt	-1145
ceed	-1146
▁keep	-1147
akes	-1148
00	-1149
▁det	-1150
▁second	-1151
▁ir	-1152
ctor	-1153
▁unt	-1154
iting	-1155
▁themselves	-1156
ken	-1157
iled	-1158
▁ill	-1159
▁whether	-1160
▁abs	-1161
anger	-1162
▁chief	-1163
▁list	-1164
▁wish	-1165
ines	-1166
▁step	-1167
▁wife	-1168
▁sure	-1169
▁evening	-1170
▁looking	-1171
app	-1172
fully	-1173
▁ang	-1174
▁given	-1175
ract	-1176
▁Valjean	-1177
▁Not	-1178
▁arri	-1179
▁rather	-1180
▁returned	-1181
▁help	-1182
▁human	-1183
▁large	-1184
▁adm	-1185
▁bes	-1186
▁Coset	-1187
▁leave	-1188
▁prop	-1189
iers	-1190
▁country	-1191
ense	-1192
land	-1193
rible	-1194
▁answered	-1195
▁ext	-1196
▁need	-1197
▁enough	-1198
▁gentle	-1199
imes	-1200
▁opp	-1201
▁hold	-1202
gether	-1203
▁together	-1204
▁obs	-1205
tered	-1206
▁suddenly	-1207
rent	-1208
une	-1209
▁Rostv	-1210
▁dec	-1211
bed	-1212
oll	-1213
▁why	-1214
▁friends	-1215
▁enem	-1216
▁lau	-1217
▁appro	-1218
▁sight	-1219
▁gone	-1220
▁table	-1221
▁deep	-1222
day	-1223
fort	-1224
▁feet	-1225
▁sn	-1226
ndred	-1227
▁fin	-1228
ude	-1229
ances	-1230
▁draw	-1231
▁question	-1232
▁thou	-1233
ousand	-1234
br	-1235
wh	-1236
ison	-1237
ching	-1238
▁course	-1239
ny	-1240
lars	-1241
ments	-1242
▁next	-1243
▁prom	-1244
owd	-1245
▁Ill	-1246
▁spoke	-1247
▁entered	-1248
▁hundred	-1249
▁bus	-1250
▁cir	-1251
iew	-1252
▁earth	-1253
▁gold	-1254
anglars	-1255
▁live	-1256
▁sister	-1257
▁thousand	-1258
aw	-1259
aim	-1260
▁whale	-1261
▁remem	-1262
▁Is	-1263
ided	-1264
▁mid	-1265
▁body	-1266
▁close	-1267
▁Count	-1268
▁pri	-1269
▁land	-1270
oney	-1271
▁evid	-1272
▁case	-1273
▁wo	-1274
▁Danglars	-1275
owing	-1276
▁lost	-1277
▁cal	-1278
▁brother	-1279
▁El	-1280
▁def	-1281
▁div	-1282
▁Paris	-1283
▁blood	-1284
▁times	-1285
arn	-1286
▁dro	-1287
▁Cosette	-1288
▁swe	-1289
▁around	-1290
▁tri	-1291
▁ut	-1292
▁perhaps	-1293
▁dest	-1294
▁really	-1295
by	-1296
ities	-1297
▁girl	-1298
▁hope	-1299
che	-1300
ool	-1301
the	-1302
▁inte	-1303
▁front	-1304
▁ask	-1305
right	-1306
▁bur	-1307
▁dev	-1308
▁num	-1309
▁expect	-1310
▁char	-1311
▁diffe	-1312
mb	-1313
▁Madame	-1314
▁believe	-1315
du	-1316
▁king	-1317
▁foot	-1318
▁appear	-1319
▁expl	-1320
▁strong	-1321
▁either	-1322
▁use	-1323
▁above	-1324
▁smile	-1325
▁strange	-1326
▁least	-1327
▁opened	-1328
osition	-1329
▁fellow	-1330
▁Ar	-1331
▁interest	-1332
▁idea	-1333
▁continued	-1334
▁move	-1335
▁indeed	-1336
ec	-1337
▁road	-1338
▁ru	-1339
ution	-1340
cend	-1341
▁eye	-1342
ane	-1343
ois	-1344
fic	-1345
▁hus	-1346
ape	-1347
ising	-1348
▁held	-1349
▁doubt	-1350
▁yourself	-1351
ility	-1352
ually	-1353
ime	-1354
ards	-1355
▁circ	-1356
▁wound	-1357
▁hur	-1358
▁become	-1359
▁wood	-1360
▁short	-1361
peri	-1362
▁Gree	-1363
▁possible	-1364
▁six	-1365
▁fight	-1366
▁horse	-1367
▁until	-1368
▁manner	-1369
airs	-1370
▁Let	-1371
▁spr	-1372
▁mist	-1373
itting	-1374
▁battle	-1375
▁Q	-1376
▁met	-1377
▁fort	-1378
▁itself	-1379
▁necess	-1380
▁Tro	-1381
overed	-1382
▁nature	-1383
▁Nap	-1384
▁happy	-1385
▁ca	-1386
▁gre	-1387
ider	-1388
▁dri	-1389
▁Russ	-1390
band	-1391
ased	-1392
▁law	-1393
▁tou	-1394
▁begin	-1395
▁ve	-1396
▁col	-1397
▁imag	-1398
▁therefore	-1399
▁children	-1400
▁coming	-1401
ne	-1402
▁eas	-1403
▁five	-1404
▁clear	-1405
▁Albert	-1406
▁mad	-1407
▁breat	-1408
osc	-1409
itted	-1410
▁excl	-1411
ror	-1412
ushed	-1413
▁added	-1414
▁Rue	-1415
▁sum	-1416
▁else	-1417
▁shout	-1418
▁compan	-1419
ught	-1420
▁joy	-1421
enty	-1422
▁window	-1423
▁esc	-1424
▁play	-1425
▁remained	-1426
▁bu	-1427
ils	-1428
▁hast	-1429
aving	-1430
fter	-1431
▁money	-1432
▁mer	-1433
anced	-1434
▁hist	-1435
▁start	-1436
▁daughter	-1437
gs	-1438
▁cut	-1439
iously	-1440
▁became	-1441
kh	-1442
▁field	-1443
ns	-1444
ific	-1445
otion	-1446
▁Se	-1447
▁truth	-1448
▁husband	-1449
erv	-1450
ric	-1451
▁Sh	-1452
arch	-1453
▁oft	-1454
ection	-1455
▁Emper	-1456
▁within	-1457
▁Napole	-1458
iver	-1459
▁Eliz	-1460
▁cold	-1461
▁quick	-1462
▁hair	-1463
▁says	-1464
▁yes	-1465
be	-1466
▁view	-1467
iful	-1468
abeth	-1469
sses	-1470
▁exc	-1471
ev	-1472
▁grand	-1473
▁able	-1474
▁Morrel	-1475
▁dem	-1476
lysses	-1477
▁exist	-1478
▁jo	-1479
que	-1480
▁Mary	-1481
▁prof	-1482
ax	-1483
▁ce	-1484
▁Mosc	-1485
▁family	-1486
▁god	-1487
▁pap	-1488
outh	-1489
▁lead	-1490
▁possess	-1491
▁Elizabeth	-1492
arp	-1493
▁Pl	-1494
▁terrible	-1495
cul	-1496
▁meet	-1497
▁Dants	-1498
▁Ulysses	-1499
▁.	-1500
▁repe	-1501
▁Gre	-1502
▁bad	-1503
▁means	-1504
▁trans	-1505
▁corn	-1506
▁stra	-1507
▁appeared	-1508
▁bring	-1509
▁conc	-1510
▁comple	-1511
▁tem	-1512
▁rose	-1513
▁Moscow	-1514
▁ele	-1515
▁spir	-1516
▁followed	-1517
▁conv	-1518
▁fair	-1519
race	-1520
▁instant	-1521
▁subject	-1522
ages	-1523
ourn	-1524
amed	-1525
▁making	-1526
yr	-1527
▁stren	-1528
▁bir	-1529
▁often	-1530
unt	-1531
▁feeling	-1532
ury	-1533
▁inqu	-1534
▁answer	-1535
▁18	-1536
▁force	-1537
▁mil	-1538
▁master	-1539
▁equ	-1540
▁shad	-1541
."	-1542
▁gard	-1543
▁state	-1544
▁women	-1545
▁sto	-1546
▁respect	-1547
use	-1548
cell	-1549
head	-1550
iling	-1551
alth	-1552
ening	-1553
▁stud	-1554
▁ed	-1555
▁mur	-1556
▁sad	-1557
▁ten	-1558
▁known	-1559
▁taking	-1560
▁gaz	-1561
▁requ	-1562
over	-1563
▁pat	-1564
▁desp	-1565
▁during	-1566
▁object	-1567
orses	-1568
▁pray	-1569
▁stay	-1570
iet	-1571
▁Im	-1572
▁ready	-1573
ogn	-1574
▁De	-1575
resh	-1576
ster	-1577
▁low	-1578
▁Her	-1579
ross	-1580
▁town	-1581
▁These	-1582
lem	-1583
ubl	-1584
ices	-1585
room	-1586
▁unc	-1587
▁past	-1588
itude	-1589
rat	-1590
▁From	-1591
▁kept	-1592
ush	-1593
▁sever	-1594
▁surpr	-1595
▁received	-1596
cted	-1597
rig	-1598
anged	-1599
▁horses	-1600
▁gods	-1601
▁cross	-1602
▁drew	-1603
▁reached	-1604
▁talk	-1605
olas	-1606
▁fle	-1607
ledge	-1608
▁seems	-1609
let	-1610
ient	-1611
▁fix	-1612
▁cent	-1613
▁quar	-1614
oom	-1615
▁sit	-1616
rence	-1617
▁free	-1618
iar	-1619
▁mount	-1620
ead	-1621
omp	-1622
rupt	-1623
▁sometimes	-1624
▁THE	-1625
▁plain	-1626
▁wonder	-1627
lo	-1628
▁cry	-1629
▁By	-1630
ires	-1631
▁age	-1632
▁eng	-1633
▁lad	-1634
icholas	-1635
▁consider	-1636
isf	-1637
▁Valent	-1638
▁prison	-1639
▁diffic	-1640
ales	-1641
▁Who	-1642
ected	-1643
▁const	-1644
▁excell	-1645
▁expression	-1646
▁disp	-1647
▁fine	-1648
read	-1649
▁par	-1650
ining	-1651
sh	-1652
▁flo	-1653
▁partic	-1654
▁Napoleon	-1655
▁Here	-1656
▁prep	-1657
▁After	-1658
tern	-1659
▁beautiful	-1660
ident	-1661
▁placed	-1662
iment	-1663
mer	-1664
ots	-1665
illes	-1666
▁Nicholas	-1667
body	-1668
ones	-1669
▁enemy	-1670
pend	-1671
utes	-1672
▁acqu	-1673
▁phil	-1674
▁soci	-1675
▁laugh	-1676
▁pleasure	-1677
ym	-1678
aimed	-1679
▁stri	-1680
▁different	-1681
▁rap	-1682
ths	-1683
ump	-1684
▁soldiers	-1685
erm	-1686
▁die	-1687
▁bene	-1688
▁creat	-1689
ancs	-1690
medi	-1691
▁tor	-1692
▁raised	-1693
ask	-1694
vern	-1695
▁remain	-1696
▁3	-1697
ouble	-1698
where	-1699
▁gall	-1700
▁une	-1701
▁Come	-1702
ues	-1703
ches	-1704
aged	-1705
atch	-1706
▁strength	-1707
appe	-1708
osop	-1709
▁mere	-1710
▁State	-1711
▁di	-1712
▁Prin	-1713
▁cast	-1714
ters	-1715
▁squ	-1716
▁cause	-1717
▁tried	-1718
▁recogn	-1719
▁Emperor	-1720
bs	-1721
▁vi	-1722
▁bit	-1723
erved	-1724
▁francs	-1725
inct	-1726
▁Valentine	-1727
ize	-1728
dle	-1729
▁crowd	-1730
▁charact	-1731
gg	-1732
▁forg	-1733
▁silence	-1734
▁ones	-1735
▁Where	-1736
▁mouth	-1737
▁mus	-1738
▁visit	-1739
▁except	-1740
▁fright	-1741
▁philosop	-1742
....	-1743
▁est	-1744
▁perfect	-1745
▁carriage	-1746
oon	-1747
▁used	-1748
▁contr	-1749
▁several	-1750
▁line	-1751
▁account	-1752
bling	-1753
▁prob	-1754
▁dream	-1755
▁justice	-1756
lled	-1757
▁wis	-1758
▁turning	-1759
ift	-1760
▁Eng	-1761
▁opin	-1762
▁third	-1763
nard	-1764
▁eat	-1765
▁heav	-1766
ossible	-1767
▁secret	-1768
mes	-1769
ublic	-1770
▁thee	-1771
▁learn	-1772
ieur	-1773
▁laid	-1774
▁pain	-1775
▁drink	-1776
ination	-1777
▁twenty	-1778
▁business	-1779
▁Fran	-1780
▁struck	-1781
▁fif	-1782
▁peace	-1783
▁convers	-1784
ceive	-1785
▁hung	-1786
▁Princess	-1787
ote	-1788
▁fast	-1789
▁doing	-1790
▁Thnard	-1791
▁led	-1792
▁mod	-1793
▁carried	-1794
▁seeing	-1795
ms	-1796
▁gri	-1797
▁vict	-1798
▁youth	-1799
oof	-1800
▁comes	-1801
▁exclaimed	-1802
like	-1803
▁pale	-1804
▁sitting	-1805
▁standing	-1806
▁event	-1807
onsieur	-1808
oly	-1809
elle	-1810
empt	-1811
▁sol	-1812
▁natur	-1813
EN	-1814
▁Of	-1815
▁ball	-1816
erous	-1817
▁bright	-1818
▁stopped	-1819
▁common	-1820
▁garden	-1821
▁hardly	-1822
▁remember	-1823
▁burn	-1824
bit	-1825
▁pay	-1826
▁city	-1827
▁Franz	-1828
▁happiness	-1829
IN	-1830
aj	-1831
▁mag	-1832
owers	-1833
▁beside	-1834
uff	-1835
▁Mrs	-1836
▁dread	-1837
▁further	-1838
icked	-1839
▁break	-1840
▁position	-1841
▁fre	-1842
▁dress	-1843
▁danger	-1844
▁happened	-1845
▁across	-1846
▁satisf	-1847
▁rev	-1848
clock	-1849
▁evidently	-1850
iced	-1851
▁len	-1852
▁pie	-1853
▁mans	-1854
▁ought	-1855
▁living	-1856
▁certainly	-1857
ze	-1858
ger	-1859
▁officer	-1860
oes	-1861
ras	-1862
arent	-1863
▁hours	-1864
▁attention	-1865
▁Ben	-1866
cious	-1867
▁guard	-1868
▁immedi	-1869
▁oclock	-1870
▁delight	-1871
▁purs	-1872
▁descri	-1873
▁import	-1874
▁street	-1875
▁neither	-1876
vert	-1877
▁Saint	-1878
▁speaking	-1879
ony	-1880
uous	-1881
▁fig	-1882
▁Pe	-1883
▁tears	-1884
▁beneath	-1885
▁knowledge	-1886
ingly	-1887
▁sweet	-1888
▁auth	-1889
▁accord	-1890
▁corner	-1891
▁forward	-1892
▁sus	-1893
asion	-1894
▁Thus	-1895
▁year	-1896
▁bound	-1897
▁ast	-1898
▁fav	-1899
ours	-1900
▁host	-1901
▁worth	-1902
▁Jove	-1903
ius	-1904
ames	-1905
▁dut	-1906
▁inn	-1907
▁doctor	-1908
utz	-1909
▁number	-1910
yl	-1911
▁lips	-1912
though	-1913
▁forth	-1914
vel	-1915
▁Or	-1916
▁fat	-1917
▁hat	-1918
side	-1919
utzov	-1920
▁rich	-1921
▁vain	-1922
▁effect	-1923
▁wanted	-1924
▁coll	-1925
▁port	-1926
▁calm	-1927
▁post	-1928
▁carry	-1929
▁length	-1930
der	-1931
▁evil	-1932
▁wild	-1933
▁knows	-1934
▁suppose	-1935
AR	-1936
de	-1937
olute	-1938
▁captain	-1939
▁character	-1940
ope	-1941
▁din	-1942
▁mem	-1943
▁slow	-1944
▁Sc	-1945
▁Its	-1946
▁send	-1947
▁impossible	-1948
▁anim	-1949
▁minutes	-1950
lish	-1951
▁Cap	-1952
▁boy	-1953
▁steps	-1954
erc	-1955
▁jud	-1956
▁news	-1957
▁troo	-1958
▁Kutzov	-1959
▁sail	-1960
▁watch	-1961
ob	-1962
und	-1963
▁bear	-1964
▁later	-1965
▁Te	-1966
ency	-1967
raid	-1968
vere	-1969
▁rapid	-1970
▁trees	-1971
▁prince	-1972
▁drawing	-1973
ored	-1974
▁conce	-1975
▁eight	-1976
▁descend	-1977
▁Min	-1978
▁gun	-1979
▁Your	-1980
▁closed	-1981
ges	-1982
▁Ach	-1983
▁pret	-1984
▁princi	-1985
▁mention	-1986
▁necessary	-1987
▁4	-1988
▁occup	-1989
▁former	-1990
,"	-1991
ality	-1992
▁Ahab	-1993
▁bott	-1994
▁coun	-1995
▁pock	-1996
ement	-1997
▁charm	-1998
▁silent	-1999
▁lady	-2000
▁arrived	-2001
▁Every	-2002
▁regard	-2003
▁enc	-2004
▁viol	-2005
▁attack	-2006
▁experi	-2007
▁following	-2008
▁rid	-2009
▁Miss	-2010
▁glad	-2011
▁glass	-2012
ples	-2013
▁Some	-2014
▁thoughts	-2015
ON	-2016
gr	-2017
▁Le	-2018
▁moved	-2019
▁entire	-2020
▁opinion	-2021
▁Ph	-2022
▁Hol	-2023
▁hes	-2024
apter	-2025
▁scar	-2026
▁fixed	-2027
▁story	-2028
▁direct	-2029
▁show	-2030
▁particular	-2031
▁5	-2032
iter	-2033
▁arr	-2034
▁fly	-2035
▁kne	-2036
▁succ	-2037
▁tone	-2038
▁quiet	-2039
▁Thnardier	-2040
umed	-2041
▁blue	-2042
▁iron	-2043
ration	-2044
▁wished	-2045
▁whis	-2046
▁produ	-2047
▁trave	-2048
▁countess	-2049
▁princess	-2050
▁av	-2051
▁Nor	-2052
emois	-2053
▁loud	-2054
▁purp	-2055
▁killed	-2056
ki	-2057
▁band	-2058
▁disappe	-2059
emoiselle	-2060
just	-2061
▁prev	-2062
▁virt	-2063
▁occur	-2064
ives	-2065
▁sorrow	-2066
▁proceed	-2067
cer	-2068
▁fing	-2069
▁late	-2070
▁afraid	-2071
ging	-2072
usion	-2073
▁circum	-2074
▁govern	-2075
▁complete	-2076
hy	-2077
ively	-2078
▁author	-2079
asp	-2080
▁Lu	-2081
▁prov	-2082
▁sense	-2083
▁mass	-2084
▁neigh	-2085
ron	-2086
▁Pro	-2087
▁emb	-2088
▁green	-2089
▁honor	-2090
▁Russian	-2091
ooh	-2092
▁En	-2093
▁self	-2094
▁straight	-2095
bo	-2096
ek	-2097
▁fanc	-2098
▁loved	-2099
▁single	-2100
▁presence	-2101
to	-2102
ics	-2103
ilt	-2104
eness	-2105
▁harm	-2106
▁soft	-2107
▁distance	-2108
▁anx	-2109
▁spo	-2110
▁try	-2111
itary	-2112
▁mine	-2113
▁suit	-2114
▁Holmes	-2115
▁forget	-2116
▁troops	-2117
▁talking	-2118
▁trem	-2119
▁vill	-2120
▁reply	-2121
▁immediately	-2122
▁maid	-2123
▁fate	-2124
▁fresh	-2125
▁darkness	-2126
▁leg	-2127
▁pen	-2128
▁gloom	-2129
▁makes	-2130
retched	-2131
▁Monsieur	-2132
khov	-2133
▁lie	-2134
▁val	-2135
▁Plat	-2136
▁thick	-2137
▁change	-2138
▁desire	-2139
▁beginning	-2140
▁shore	-2141
▁breast	-2142
▁occasion	-2143
▁thinking	-2144
kn	-2145
The	-2146
for	-2147
▁fathers	-2148
ES	-2149
▁attend	-2150
▁neighb	-2151
▁slight	-2152
cient	-2153
▁warm	-2154
▁walked	-2155
▁understood	-2156
▁Sny	-2157
▁kill	-2158
AN	-2159
▁lab	-2160
▁refle	-2161
itation	-2162
▁bow	-2163
olution	-2164
▁repeated	-2165
▁conversation	-2166
els	-2167
antly	-2168
▁caught	-2169
under	-2170
ustom	-2171
ode	-2172
▁top	-2173
light	-2174
▁cant	-2175
▁belong	-2176
▁orders	-2177
▁Mademoiselle	-2178
▁Good	-2179
▁kiss	-2180
▁neck	-2181
▁plan	-2182
▁ships	-2183
▁inform	-2184
▁spirit	-2185
▁Gr	-2186
▁Sp	-2187
▁bey	-2188
▁box	-2189
▁cre	-2190
▁paper	-2191
▁demand	-2192
▁dinner	-2193
▁lif	-2194
▁sal	-2195
▁sens	-2196
▁lived	-2197
▁broken	-2198
ivid	-2199
▁Dar	-2200
▁ago	-2201
▁tom	-2202
▁tra	-2203
▁threw	-2204
▁beyond	-2205
ensov	-2206
▁Ne	-2207
aled	-2208
▁hig	-2209
▁lim	-2210
inary	-2211
▁boat	-2212
▁waiting	-2213
ned	-2214
▁Ja	-2215
ortal	-2216
fer	-2217
▁big	-2218
itten	-2219
▁floor	-2220
▁remar	-2221
▁seized	-2222
ET	-2223
▁Tw	-2224
ades	-2225
ises	-2226
▁breath	-2227
IS	-2228
▁Pet	-2229
▁imm	-2230
▁none	-2231
▁acquaint	-2232
rib	-2233
▁decl	-2234
urg	-2235
▁med	-2236
ented	-2237
▁weak	-2238
▁Christ	-2239
▁chance	-2240
▁nar	-2241
▁book	-2242
▁camp	-2243
cience	-2244
▁reach	-2245
▁escape	-2246
ley	-2247
arer	-2248
ists	-2249
oint	-2250
▁exam	-2251
▁rock	-2252
▁While	-2253
▁meant	-2254
▁history	-2255
▁although	-2256
lig	-2257
pty	-2258
▁ann	-2259
▁eag	-2260
▁comb	-2261
ancing	-2262
itions	-2263
▁filled	-2264
▁quickly	-2265
▁success	-2266
erve	-2267
oned	-2268
▁sep	-2269
▁Benn	-2270
▁wait	-2271
▁stone	-2272
▁motion	-2273
▁service	-2274
▁soldier	-2275
▁wrong	-2276
▁Densov	-2277
▁fortune	-2278
▁Un	-2279
▁Cad	-2280
ically	-2281
anch	-2282
hood	-2283
uted	-2284
▁destro	-2285
▁officers	-2286
▁peas	-2287
▁alarm	-2288
▁action	-2289
▁society	-2290
aped	-2291
▁hop	-2292
isted	-2293
▁Snya	-2294
▁enter	-2295
ler	-2296
urs	-2297
▁court	-2298
▁utter	-2299
▁pretty	-2300
▁result	-2301
▁tomorrow	-2302
ume	-2303
▁Tr	-2304
▁instead	-2305
▁Dor	-2306
▁wine	-2307
▁glance	-2308
▁Achilles	-2309
▁circumst	-2310
atever	-2311
val	-2312
▁OF	-2313
▁coat	-2314
▁grew	-2315
acy	-2316
▁cra	-2317
▁mut	-2318
▁forest	-2319
▁purpose	-2320
▁deal	-2321
leep	-2322
▁fut	-2323
▁wit	-2324
▁prot	-2325
▁Chapter	-2326
▁Ed	-2327
▁sky	-2328
ouses	-2329
▁hill	-2330
▁grave	-2331
▁anyone	-2332
▁nearly	-2333
▁shouted	-2334
eds	-2335
▁den	-2336
▁heavy	-2337
uel	-2338
iant	-2339
amber	-2340
asure	-2341
▁report	-2342
▁marriage	-2343
▁appearance	-2344
▁mill	-2345
▁compl	-2346
ague	-2347
osing	-2348
▁marry	-2349
▁pocket	-2350
OO	-2351
▁Ex	-2352
▁Que	-2353
▁easy	-2354
▁infl	-2355
cially	-2356
▁English	-2357
▁address	-2358
▁greater	-2359
▁natural	-2360
▁approach	-2361
lly	-2362
▁usual	-2363
▁please	-2364
▁Caderous	-2365
ries	-2366
▁hid	-2367
▁pal	-2368
▁duty	-2369
▁spot	-2370
aining	-2371
▁depart	-2372
▁Bar	-2373
▁noble	-2374
▁intell	-2375
▁toward	-2376
▁wounded	-2377
ah	-2378
▁cat	-2379
▁fal	-2380
anging	-2381
idence	-2382
▁effort	-2383
▁slowly	-2384
▁Go	-2385
oved	-2386
▁firm	-2387
▁giving	-2388
▁Just	-2389
▁future	-2390
▁covered	-2391
▁getting	-2392
▁stranger	-2393
ike	-2394
▁pit	-2395
▁conn	-2396
▁study	-2397
▁merely	-2398
▁courage	-2399
ously	-2400
culiar	-2401
▁below	-2402
▁latter	-2403
▁spread	-2404
▁leaving	-2405
ubb	-2406
▁La	-2407
ding	-2408
▁fier	-2409
▁shut	-2410
▁smoke	-2411
▁simple	-2412
▁movement	-2413
▁peculiar	-2414
ugg	-2415
▁oer	-2416
▁lean	-2417
▁blind	-2418
ism	-2419
rid	-2420
uct	-2421
▁ign	-2422
ories	-2423
▁Troy	-2424
▁Alice	-2425
▁attempt	-2426
▁Mar	-2427
achus	-2428
▁Javert	-2429
▁accept	-2430
▁meaning	-2431
▁Caderousse	-2432
angu	-2433
cely	-2434
▁Are	-2435
▁maj	-2436
pping	-2437
▁clot	-2438
▁Darcy	-2439
▁lower	-2440
aval	-2441
▁died	-2442
▁race	-2443
▁broad	-2444
▁formed	-2445
ams	-2446
umb	-2447
ulty	-2448
▁Fau	-2449
▁rul	-2450
▁unh	-2451
known	-2452
▁noticed	-2453
▁direction	-2454
cerf	-2455
ests	-2456
teen	-2457
urch	-2458
▁und	-2459
lling	-2460
▁apart	-2461
▁smiled	-2462
▁running	-2463
pit	-2464
▁Dr	-2465
omer	-2466
▁ben	-2467
▁por	-2468
▁Very	-2469
▁bold	-2470
▁pull	-2471
▁expected	-2472
ald	-2473
▁pa	-2474
▁cou	-2475
▁furn	-2476
▁brave	-2477
▁fallen	-2478
▁Pooh	-2479
▁allow	-2480
▁aston	-2481
▁journ	-2482
▁silver	-2483
▁probably	-2484
▁Ag	-2485
▁grow	-2486
▁remark	-2487
▁Morcerf	-2488
aves	-2489
bles	-2490
▁gro	-2491
ishop	-2492
▁extre	-2493
▁middle	-2494
▁Certain	-2495
▁afterwards	-2496
jo	-2497
▁van	-2498
▁capt	-2499
▁incl	-2500
▁seven	-2501
▁absolute	-2502
▁France	-2503
▁whales	-2504
eks	-2505
▁pun	-2506
▁early	-2507
▁beauty	-2508
▁destroy	-2509
bb	-2510
▁deg	-2511
▁suc	-2512
▁save	-2513
▁public	-2514
co	-2515
arb	-2516
well	-2517
ified	-2518
▁Will	-2519
▁concl	-2520
▁walls	-2521
ative	-2522
▁sett	-2523
▁burst	-2524
▁today	-2525
▁months	-2526
pecially	-2527
▁passage	-2528
OM	-2529
ibly	-2530
that	-2531
▁Troj	-2532
▁prec	-2533
▁wide	-2534
▁wont	-2535
▁Doroth	-2536
▁asleep	-2537
▁trying	-2538
▁gentleman	-2539
ays	-2540
▁Yet	-2541
oured	-2542
▁dust	-2543
▁passing	-2544
▁greatest	-2545
aded	-2546
▁Per	-2547
▁bank	-2548
▁cart	-2549
▁becom	-2550
▁retreat	-2551
dom	-2552
ien	-2553
athe	-2554
ended	-2555
▁miss	-2556
▁exact	-2557
▁Father	-2558
ision	-2559
▁King	-2560
▁angry	-2561
▁ancient	-2562
▁succeed	-2563
▁da	-2564
ience	-2565
▁pity	-2566
▁walk	-2567
▁thats	-2568
▁treat	-2569
▁prevent	-2570
con	-2571
ploy	-2572
▁Van	-2573
itated	-2574
ounded	-2575
▁heads	-2576
▁teeth	-2577
▁advant	-2578
▁Qu	-2579
▁shoulders	-2580
▁Am	-2581
▁var	-2582
ompan	-2583
▁Have	-2584
▁Such	-2585
▁chair	-2586
▁Bl	-2587
▁win	-2588
mbled	-2589
▁paid	-2590
▁eager	-2591
▁separ	-2592
▁despair	-2593
aly	-2594
▁houses	-2595
▁married	-2596
▁commander	-2597
▁Jo	-2598
▁blow	-2599
▁figure	-2600
▁comfort	-2601
▁quarter	-2602
▁servant	-2603
▁Lord	-2604
▁barric	-2605
▁Br	-2606
▁hunt	-2607
▁Thats	-2608
▁written	-2609
▁trouble	-2610
aff	-2611
hip	-2612
ails	-2613
aire	-2614
held	-2615
▁cab	-2616
▁situ	-2617
erable	-2618
▁river	-2619
▁Hector	-2620
wise	-2621
ature	-2622
▁polit	-2623
▁police	-2624
▁holding	-2625
▁listened	-2626
▁difficult	-2627
▁ere	-2628
▁ves	-2629
▁gate	-2630
▁hero	-2631
▁lies	-2632
▁perm	-2633
▁sons	-2634
▁Dorothy	-2635
▁especially	-2636
yd	-2637
ishing	-2638
▁honour	-2639
▁promise	-2640
ences	-2641
▁seat	-2642
▁twel	-2643
▁divine	-2644
ept	-2645
▁Cl	-2646
▁flew	-2647
▁rese	-2648
▁Noirt	-2649
▁Certainly	-2650
▁according	-2651
enced	-2652
▁rage	-2653
▁incre	-2654
▁sides	-2655
▁super	-2656
▁employ	-2657
▁health	-2658
▁perfectly	-2659
▁See	-2660
▁food	-2661
▁persons	-2662
▁feelings	-2663
▁whatever	-2664
000	-2665
ior	-2666
▁educ	-2667
▁lying	-2668
ference	-2669
▁outside	-2670
▁smiling	-2671
uly	-2672
ingu	-2673
▁sch	-2674
▁cand	-2675
▁tall	-2676
▁bread	-2677
▁oppos	-2678
▁spect	-2679
▁spite	-2680
▁stern	-2681
▁tender	-2682
▁serious	-2683
IT	-2684
ais	-2685
ooks	-2686
aming	-2687
▁brid	-2688
ushing	-2689
▁piece	-2690
▁train	-2691
▁vessel	-2692
▁regiment	-2693
▁surprise	-2694
uit	-2695
▁bra	-2696
▁civ	-2697
▁tree	-2698
▁Plato	-2699
▁rising	-2700
▁disappeared	-2701
what	-2702
▁dim	-2703
acing	-2704
inite	-2705
▁individ	-2706
ouis	-2707
▁arg	-2708
▁bent	-2709
▁bless	-2710
▁lives	-2711
▁spring	-2712
▁company	-2713
▁pleased	-2714
pic	-2715
▁Rome	-2716
▁note	-2717
▁safe	-2718
▁summ	-2719
▁surr	-2720
▁grief	-2721
▁party	-2722
▁sharp	-2723
▁easily	-2724
▁minute	-2725
OR	-2726
▁yell	-2727
▁faith	-2728
▁false	-2729
▁ideas	-2730
ishment	-2731
▁commun	-2732
▁golden	-2733
▁interrupt	-2734
gy	-2735
▁dog	-2736
▁Hels	-2737
▁Merc	-2738
▁murm	-2739
ming	-2740
▁thin	-2741
lokhov	-2742
pected	-2743
▁proud	-2744
▁virtue	-2745
▁imagine	-2746
UL	-2747
ashed	-2748
bered	-2749
▁crew	-2750
▁poet	-2751
seless	-2752
▁shook	-2753
▁journey	-2754
mond	-2755
otten	-2756
▁hide	-2757
▁agree	-2758
▁everyone	-2759
.,	-2760
lemn	-2761
sequ	-2762
▁Ind	-2763
▁ver	-2764
▁born	-2765
▁magn	-2766
▁obey	-2767
▁noise	-2768
▁solemn	-2769
▁important	-2770
aph	-2771
een	-2772
now	-2773
ply	-2774
ouds	-2775
▁Tom	-2776
rigin	-2777
▁girls	-2778
▁Dlokhov	-2779
▁accompan	-2780
▁questions	-2781
ases	-2782
▁kings	-2783
▁events	-2784
▁Captain	-2785
▁allowed	-2786
▁contrary	-2787
▁clo	-2788
▁fun	-2789
▁Mont	-2790
▁Only	-2791
▁determ	-2792
▁thunder	-2793
▁wol	-2794
acked	-2795
▁exec	-2796
▁priv	-2797
▁sake	-2798
▁Greek	-2799
▁desert	-2800
▁origin	-2801
▁twelve	-2802
▁observed	-2803
ma	-2804
str	-2805
▁snow	-2806
▁sword	-2807
▁yield	-2808
▁dressed	-2809
▁pointed	-2810
▁opposite	-2811
ye	-2812
imil	-2813
▁hot	-2814
▁langu	-2815
▁music	-2816
▁distingu	-2817
▁Bing	-2818
▁bare	-2819
ception	-2820
▁bottom	-2821
▁letters	-2822
▁dreadful	-2823
ias	-2824
ovna	-2825
▁dart	-2826
▁pract	-2827
▁island	-2828
▁seated	-2829
▁shadow	-2830
▁showed	-2831
▁terror	-2832
esty	-2833
fast	-2834
ghed	-2835
▁mel	-2836
▁stro	-2837
fortun	-2838
ounced	-2839
▁Never	-2840
▁broke	-2841
▁drove	-2842
▁histor	-2843
▁knowing	-2844
io	-2845
ton	-2846
▁ble	-2847
▁mor	-2848
ested	-2849
▁Greg	-2850
▁Homer	-2851
▁drawn	-2852
▁oblig	-2853
▁started	-2854
▁unknown	-2855
▁excellency	-2856
aud	-2857
▁May	-2858
arily	-2859
▁legs	-2860
▁vast	-2861
▁knees	-2862
▁scene	-2863
▁Bennet	-2864
▁entirely	-2865
▁gentlemen	-2866
?"	-2867
kes	-2868
,000	-2869
▁aim	-2870
ibility	-2871
OOK	-2872
iff	-2873
avro	-2874
▁ban	-2875
▁smo	-2876
olved	-2877
▁Andre	-2878
▁class	-2879
▁Helsing	-2880
▁Did	-2881
▁beat	-2882
▁visible	-2883
▁ourselves	-2884
▁Re	-2885
▁stop	-2886
▁faint	-2887
▁ignor	-2888
▁walking	-2889
▁presented	-2890
▁difficulty	-2891
▁er	-2892
▁ant	-2893
▁sac	-2894
▁sym	-2895
▁drag	-2896
▁ears	-2897
idered	-2898
▁suffic	-2899
▁unhapp	-2900
▁streets	-2901
▁touched	-2902
iod	-2903
olog	-2904
▁trust	-2905
▁moments	-2906
▁Fl	-2907
uded	-2908
▁Anna	-2909
▁mark	-2910
▁Their	-2911
▁habit	-2912
▁sacri	-2913
▁beheld	-2914
▁Nothing	-2915
▁changed	-2916
▁learned	-2917
▁scarcely	-2918
III	-2919
ech	-2920
rer	-2921
▁Two	-2922
▁rise	-2923
▁tast	-2924
▁gazed	-2925
▁caused	-2926
▁extend	-2927
▁listen	-2928
▁finished	-2929
▁6	-2930
joy	-2931
▁eld	-2932
▁gen	-2933
▁tow	-2934
▁amid	-2935
icated	-2936
▁aside	-2937
▁fault	-2938
▁church	-2939
▁receive	-2940
ustration	-2941
▁servants	-2942
▁shoulder	-2943
▁existence	-2944
▁vol	-2945
▁Bors	-2946
▁bore	-2947
▁deck	-2948
▁path	-2949
▁fifty	-2950
▁Edmond	-2951
▁military	-2952
▁barricade	-2953
▁conscious	-2954
onel	-2955
ring	-2956
▁bod	-2957
▁pict	-2958
▁Gavro	-2959
▁storm	-2960
▁inquired	-2961
▁Me	-2962
▁XV	-2963
izing	-2964
retch	-2965
▁lose	-2966
▁touch	-2967
▁write	-2968
▁places	-2969
▁Jon	-2970
pered	-2971
▁faces	-2972
▁famil	-2973
▁various	-2974
hel	-2975
rop	-2976
uls	-2977
cial	-2978
▁Sir	-2979
ament	-2980
▁phys	-2981
▁wrote	-2982
▁Andrea	-2983
▁assist	-2984
▁simply	-2985
▁concern	-2986
▁windows	-2987
▁distinct	-2988
wor	-2989
ilar	-2990
ander	-2991
▁ming	-2992
▁worse	-2993
▁ladies	-2994
▁village	-2995
arsh	-2996
▁Beau	-2997
▁rode	-2998
▁tail	-2999
levent	-3000
▁affair	-3001
▁forced	-3002
▁ordered	-3003
▁occupied	-3004
▁Bes	-3005
ument	-3006
▁harp	-3007
ashion	-3008
▁conqu	-3009
▁clouds	-3010
▁moving	-3011
▁myster	-3012
▁notice	-3013
▁appears	-3014
▁affection	-3015
▁frightened	-3016
ina	-3017
athan	-3018
iding	-3019
▁dare	-3020
▁fool	-3021
▁main	-3022
▁moon	-3023
▁ring	-3024
theless	-3025
▁suffer	-3026
▁superi	-3027
▁decided	-3028
▁Noirtier	-3029
▁perceived	-3030
come	-3031
tering	-3032
▁board	-3033
▁grace	-3034
▁intro	-3035
▁likely	-3036
▁unable	-3037
▁creature	-3038
▁advantage	-3039
▁satisfied	-3040
zen	-3041
▁Ad	-3042
bers	-3043
oted	-3044
▁Mart	-3045
▁vent	-3046
▁press	-3047
▁remarked	-3048
AT	-3049
af	-3050
aked	-3051
night	-3052
▁Jane	-3053
▁More	-3054
▁shud	-3055
iction	-3056
▁influ	-3057
▁flight	-3058
▁condition	-3059
▁forgotten	-3060
▁inh	-3061
▁dism	-3062
▁begun	-3063
▁mighty	-3064
▁spoken	-3065
▁strugg	-3066
chelevent	-3067
▁advanced	-3068
▁intellig	-3069
▁approached	-3070
ios	-3071
lin	-3072
▁Com	-3073
▁entr	-3074
▁shot	-3075
▁admir	-3076
▁offer	-3077
▁voices	-3078
▁chamber	-3079
▁clothes	-3080
▁trembling	-3081
ulf	-3082
▁ur	-3083
▁avo	-3084
▁awa	-3085
▁rend	-3086
▁enjoy	-3087
▁speed	-3088
attered	-3089
▁mothers	-3090
▁opening	-3091
▁Lond	-3092
▁ende	-3093
▁sple	-3094
▁civil	-3095
▁thrown	-3096
▁Gavroche	-3097
▁profound	-3098
▁Fauchelevent	-3099
▁circumstances	-3100
ips	-3101
▁ris	-3102
ivers	-3103
▁coff	-3104
▁grou	-3105
aximil	-3106
▁warri	-3107
▁gloomy	-3108
▁talked	-3109
▁confess	-3110
loo	-3111
▁Sun	-3112
▁cloud	-3113
▁empty	-3114
▁inquir	-3115
▁proper	-3116
▁rushed	-3117
▁waited	-3118
▁surprised	-3119
OL	-3120
bre	-3121
ett	-3122
▁Bou	-3123
▁BOOK	-3124
▁Made	-3125
▁goes	-3126
father	-3127
▁besides	-3128
▁impress	-3129
▁laughed	-3130
▁remembered	-3131
▁Vas	-3132
▁Aust	-3133
ission	-3134
▁Whale	-3135
▁lines	-3136
▁midst	-3137
ND	-3138
ator	-3139
ners	-3140
▁wise	-3141
enance	-3142
terday	-3143
▁memory	-3144
▁hurried	-3145
▁government	-3146
jol	-3147
cure	-3148
chief	-3149
▁Dont	-3150
▁appl	-3151
▁pier	-3152
▁weep	-3153
ternal	-3154
▁alive	-3155
▁looks	-3156
▁London	-3157
▁horror	-3158
▁thirty	-3159
▁However	-3160
▁offered	-3161
▁uttered	-3162
▁occurred	-3163
?<	-3164
hat	-3165
▁Even	-3166
▁hall	-3167
▁shame	-3168
ham	-3169
iny	-3170
cked	-3171
hest	-3172
uses	-3173
▁Cour	-3174
▁Gats	-3175
▁bird	-3176
▁Greece	-3177
▁Maximil	-3178
▁superior	-3179
UR	-3180
ka	-3181
set	-3182
▁Gu	-3183
while	-3184
▁cost	-3185
▁jump	-3186
▁papers	-3187
▁splend	-3188
▁engaged	-3189
▁passion	-3190
▁laughing	-3191
▁prepared	-3192
cr	-3193
▁abb	-3194
▁alt	-3195
aling	-3196
▁sand	-3197
▁seek	-3198
ctions	-3199
▁glanced	-3200
▁suitors	-3201
▁wretched	-3202
olk	-3203
iles	-3204
istol	-3205
▁rain	-3206
jolras	-3207
▁enorm	-3208
▁swift	-3209
▁Bishop	-3210
▁advance	-3211
▁affairs	-3212
▁similar	-3213
▁mentioned	-3214
ieu	-3215
lex	-3216
hens	-3217
▁wed	-3218
▁cheer	-3219
▁spent	-3220
▁Madele	-3221
▁endeav	-3222
▁sacred	-3223
▁handsome	-3224
▁Illustration	-3225
oose	-3226
▁sav	-3227
ether	-3228
ortun	-3229
▁disg	-3230
▁Still	-3231
▁Telem	-3232
▁rapidly	-3233
hn	-3234
unk	-3235
▁cho	-3236
▁tyr	-3237
antic	-3238
▁sick	-3239
▁unex	-3240
▁glory	-3241
▁prove	-3242
▁double	-3243
▁recall	-3244
▁charming	-3245
▁philosopher	-3246
gel	-3247
▁XX	-3248
burg	-3249
cing	-3250
▁bitter	-3251
▁parent	-3252
▁period	-3253
▁yellow	-3254
▁philosophy	-3255
rif	-3256
▁Gl	-3257
ayed	-3258
▁Can	-3259
orted	-3260
▁stir	-3261
▁fancy	-3262
▁fashion	-3263
▁perform	-3264
▁Enjolras	-3265
▁generally	-3266
▁id	-3267
enel	-3268
irst	-3269
umph	-3270
▁Pty	-3271
▁Sil	-3272
▁fet	-3273
apped	-3274
ember	-3275
▁equal	-3276
ancholy	-3277
▁recoll	-3278
▁wealth	-3279
▁Bingley	-3280
▁education	-3281
ae	-3282
yal	-3283
acle	-3284
▁ash	-3285
▁rag	-3286
▁star	-3287
▁crime	-3288
▁Peters	-3289
▁Maximilian	-3290
cle	-3291
▁Sm	-3292
▁du	-3293
nski	-3294
▁fish	-3295
orious	-3296
racted	-3297
▁aband	-3298
▁chest	-3299
▁gives	-3300
▁Mercds	-3301
▁behold	-3302
▁fields	-3303
▁happen	-3304
▁higher	-3305
▁powers	-3306
▁evident	-3307
▁introdu	-3308
▁breakfast	-3309
▁considered	-3310
oe	-3311
pir	-3312
▁sy	-3313
▁neg	-3314
▁brow	-3315
▁accom	-3316
▁extra	-3317
ruction	-3318
▁favour	-3319
▁narrow	-3320
▁burning	-3321
▁distant	-3322
▁resumed	-3323
ipp	-3324
oped	-3325
champ	-3326
ocked	-3327
ption	-3328
▁nine	-3329
▁pure	-3330
▁forms	-3331
▁saved	-3332
▁mortal	-3333
▁served	-3334
▁melancholy	-3335
but	-3336
▁cow	-3337
▁unf	-3338
ormand	-3339
▁beast	-3340
▁dying	-3341
▁uneas	-3342
▁height	-3343
▁paused	-3344
▁repres	-3345
▁Telemachus	-3346
dd	-3347
aus	-3348
eque	-3349
▁thro	-3350
▁coach	-3351
▁month	-3352
▁nearer	-3353
▁sought	-3354
▁temper	-3355
▁unhappy	-3356
US	-3357
esh	-3358
oop	-3359
pse	-3360
kind	-3361
long	-3362
▁ine	-3363
ulous	-3364
▁fart	-3365
▁fill	-3366
▁fold	-3367
▁week	-3368
▁devil	-3369
▁degree	-3370
▁pistol	-3371
▁extreme	-3372
▁expressed	-3373
rate	-3374
▁gra	-3375
mense	-3376
▁roof	-3377
▁scre	-3378
action	-3379
▁Somet	-3380
▁pride	-3381
▁distur	-3382
▁matters	-3383
▁Madeleine	-3384
arr	-3385
▁key	-3386
▁sor	-3387
▁stup	-3388
▁vague	-3389
▁consequ	-3390
▁flowers	-3391
▁countenance	-3392
acks	-3393
▁tum	-3394
▁reve	-3395
▁tong	-3396
▁boats	-3397
▁grasp	-3398
▁repro	-3399
▁bridge	-3400
▁threat	-3401
▁triumph	-3402
▁companion	-3403
▁excellent	-3404
ipe	-3405
crow	-3406
mend	-3407
oses	-3408
▁Our	-3409
▁ren	-3410
▁earn	-3411
▁sugg	-3412
▁Louis	-3413
▁build	-3414
▁favor	-3415
▁grass	-3416
▁innoc	-3417
▁slain	-3418
▁space	-3419
▁thank	-3420
aughters	-3421
▁heavens	-3422
▁witness	-3423
▁forehead	-3424
▁carefully	-3425
▁yesterday	-3426
ids	-3427
▁Thr	-3428
▁cit	-3429
arest	-3430
astic	-3431
▁Stubb	-3432
▁freed	-3433
▁reading	-3434
▁remains	-3435
▁mysterious	-3436
▁Z	-3437
pond	-3438
▁sin	-3439
gress	-3440
imate	-3441
▁Long	-3442
▁Ptya	-3443
▁nose	-3444
▁cover	-3445
▁Greeks	-3446
▁kissed	-3447
▁Queeque	-3448
▁station	-3449
▁brothers	-3450
▁prisoner	-3451
▁singular	-3452
▁Beauchamp	-3453
▁listening	-3454
!<	-3455
apart	-3456
inced	-3457
inous	-3458
verse	-3459
▁bell	-3460
▁contem	-3461
▁libert	-3462
▁discuss	-3463
▁falling	-3464
▁hearing	-3465
▁immense	-3466
ardon	-3467
igned	-3468
▁drive	-3469
▁Besides	-3470
▁meeting	-3471
▁watched	-3472
▁pleasant	-3473
▁promised	-3474
▁addressed	-3475
▁discovered	-3476
▁recognized	-3477
eys	-3478
ran	-3479
▁Ive	-3480
▁march	-3481
arecrow	-3482
▁sprang	-3483
▁obliged	-3484
▁shadows	-3485
▁enormous	-3486
THE	-3487
▁Tz	-3488
▁et	-3489
reed	-3490
▁mir	-3491
▁Sper	-3492
▁didnt	-3493
▁parts	-3494
▁souls	-3495
onapart	-3496
▁inside	-3497
▁lifted	-3498
▁clearly	-3499
▁produced	-3500
▁interrupted	-3501
▁Con	-3502
▁pop	-3503
▁luck	-3504
▁bowed	-3505
▁names	-3506
▁takes	-3507
▁ceased	-3508
▁curious	-3509
zz	-3510
erty	-3511
▁aud	-3512
▁foe	-3513
iform	-3514
▁Lady	-3515
▁sink	-3516
▁Though	-3517
▁misery	-3518
▁believed	-3519
▁situation	-3520
▁experienced	-3521
▁7	-3522
ING	-3523
cil	-3524
▁Ap	-3525
teau	-3526
▁pra	-3527
▁uns	-3528
illen	-3529
▁lord	-3530
iently	-3531
▁baron	-3532
▁imper	-3533
▁persu	-3534
▁Before	-3535
▁explain	-3536
▁fingers	-3537
▁pressed	-3538
▁everybody	-3539
▁possession	-3540
go	-3541
zy	-3542
nce	-3543
▁Col	-3544
▁Alex	-3545
acious	-3546
▁Great	-3547
▁frequ	-3548
▁throw	-3549
▁uniform	-3550
▁apparent	-3551
▁supposed	-3552
▁daughters	-3553
illenormand	-3554
fty	-3555
▁ep	-3556
cian	-3557
▁Coll	-3558
▁halt	-3559
▁mess	-3560
▁recei	-3561
▁Trojan	-3562
▁depend	-3563
▁supper	-3564
▁language	-3565
▁opportun	-3566
▁watching	-3567
aws	-3568
och	-3569
vey	-3570
▁Bec	-3571
▁Was	-3572
ample	-3573
▁rejo	-3574
inated	-3575
▁accompl	-3576
▁settled	-3577
▁victory	-3578
▁Scarecrow	-3579
▁unexpected	-3580
ites	-3581
▁voy	-3582
▁rule	-3583
▁wolf	-3584
▁doors	-3585
▁inhab	-3586
▁sorry	-3587
▁leaves	-3588
ule	-3589
▁Ab	-3590
▁ow	-3591
arse	-3592
ille	-3593
ital	-3594
▁ascend	-3595
▁growing	-3596
▁liberty	-3597
▁experience	-3598
▁individual	-3599
itz	-3600
ium	-3601
oot	-3602
▁gh	-3603
bray	-3604
itch	-3605
reet	-3606
▁Car	-3607
▁Jul	-3608
▁Pig	-3609
▁sew	-3610
▁Take	-3611
▁diss	-3612
▁dogs	-3613
▁lock	-3614
▁loss	-3615
▁sigh	-3616
▁delic	-3617
▁hurry	-3618
▁curios	-3619
▁preced	-3620
▁weight	-3621
▁worthy	-3622
▁property	-3623
iety	-3624
▁181	-3625
▁inj	-3626
field	-3627
▁comr	-3628
▁song	-3629
▁brain	-3630
▁grown	-3631
▁maint	-3632
▁finger	-3633
▁unless	-3634
▁farther	-3635
▁science	-3636
▁spirits	-3637
▁required	-3638
▁somewhat	-3639
▁grandfather	-3640
▁Gillenormand	-3641
tle	-3642
cher	-3643
oman	-3644
omed	-3645
▁mix	-3646
using	-3647
▁Look	-3648
▁cell	-3649
▁fury	-3650
▁grat	-3651
▁guns	-3652
▁join	-3653
▁fierce	-3654
▁Because	-3655
▁dropped	-3656
IC	-3657
ky	-3658
not	-3659
enth	-3660
▁due	-3661
▁asse	-3662
▁bend	-3663
▁huss	-3664
▁roll	-3665
▁ruin	-3666
▁waves	-3667
▁circle	-3668
▁century	-3669
▁greatly	-3670
▁sisters	-3671
▁whispered	-3672
▁Petersburg	-3673
fl	-3674
▁Id	-3675
cles	-3676
enge	-3677
ival	-3678
rees	-3679
▁Pat	-3680
▁shr	-3681
▁betr	-3682
▁guess	-3683
ability	-3684
ication	-3685
▁custom	-3686
▁search	-3687
▁exactly	-3688
▁telling	-3689
▁Queequeg	-3690
mon	-3691
▁adj	-3692
▁fit	-3693
usted	-3694
▁Tell	-3695
▁deli	-3696
▁emer	-3697
▁fond	-3698
▁relig	-3699
▁asking	-3700
▁cannon	-3701
▁engage	-3702
▁modern	-3703
▁thrust	-3704
▁absence	-3705
▁arrival	-3706
▁mankind	-3707
▁mingled	-3708
▁instantly	-3709
He	-3710
gar	-3711
isc	-3712
dess	-3713
▁aid	-3714
▁John	-3715
▁Like	-3716
ointed	-3717
▁crown	-3718
▁resem	-3719
▁unjust	-3720
▁Perhaps	-3721
▁motionless	-3722
emn	-3723
▁Had	-3724
▁Man	-3725
▁lod	-3726
board	-3727
▁birds	-3728
▁judge	-3729
▁stupid	-3730
▁anxious	-3731
▁example	-3732
oms	-3733
aker	-3734
pire	-3735
▁mot	-3736
chant	-3737
itable	-3738
▁clean	-3739
▁spear	-3740
▁Debray	-3741
▁arrest	-3742
▁counts	-3743
▁curiosity	-3744
▁influence	-3745
▁particularly	-3746
atur	-3747
cean	-3748
keep	-3749
▁gay	-3750
ounds	-3751
▁True	-3752
▁huge	-3753
▁seas	-3754
▁Vasli	-3755
▁chari	-3756
▁haste	-3757
▁impro	-3758
▁royal	-3759
▁stock	-3760
▁twice	-3761
▁someone	-3762
▁useless	-3763
▁writing	-3764
▁instinct	-3765
▁neighbor	-3766
▁prisoners	-3767
eor	-3768
atic	-3769
▁deb	-3770
▁dry	-3771
▁gar	-3772
▁bull	-3773
▁books	-3774
▁group	-3775
▁liked	-3776
▁hearts	-3777
▁convent	-3778
▁necessity	-3779
how	-3780
hus	-3781
ucc	-3782
anqu	-3783
erman	-3784
ipped	-3785
▁cloak	-3786
▁hopes	-3787
▁slept	-3788
▁monarch	-3789
▁completely	-3790
gin	-3791
▁amb	-3792
▁laws	-3793
▁impat	-3794
▁indif	-3795
▁share	-3796
▁shown	-3797
▁Gregor	-3798
▁Having	-3799
▁Piglet	-3800
▁shield	-3801
▁escaped	-3802
▁putting	-3803
▁horrible	-3804
▁suffered	-3805
▁miserable	-3806
▁suffering	-3807
OME	-3808
tes	-3809
case	-3810
▁Rep	-3811
▁Wood	-3812
stairs	-3813
▁Shall	-3814
▁forty	-3815
▁invol	-3816
▁Minerv	-3817
▁Rostvs	-3818
▁speech	-3819
▁wicked	-3820
▁special	-3821
▁succeeded	-3822
▁difference	-3823
ao	-3824
olt	-3825
umn	-3826
yrac	-3827
▁Char	-3828
▁cred	-3829
▁lamp	-3830
▁First	-3831
▁flies	-3832
▁proof	-3833
▁Cather	-3834
▁becomes	-3835
▁conduct	-3836
▁crossed	-3837
▁lighted	-3838
▁peasant	-3839
▁profess	-3840
▁entrance	-3841
▁principle	-3842
ords	-3843
▁Rob	-3844
▁lar	-3845
ables	-3846
ounce	-3847
▁Lucy	-3848
▁task	-3849
▁wore	-3850
▁paint	-3851
▁yours	-3852
▁madame	-3853
▁convinced	-3854
▁approaching	-3855
▁IN	-3856
▁Ts	-3857
ardin	-3858
isher	-3859
ernand	-3860
▁citiz	-3861
▁lofty	-3862
ustomed	-3863
▁honest	-3864
▁stream	-3865
▁excited	-3866
▁freedom	-3867
▁parents	-3868
▁intended	-3869
▁murmured	-3870
▁concealed	-3871
▁possessed	-3872
LE	-3873
vl	-3874
ims	-3875
urse	-3876
ospit	-3877
▁amaz	-3878
▁dawn	-3879
▁match	-3880
▁shock	-3881
▁shoes	-3882
▁feared	-3883
▁priest	-3884
▁suspic	-3885
▁wishes	-3886
▁assured	-3887
▁wonderful	-3888
▁understanding	-3889
ker	-3890
yle	-3891
▁AND	-3892
▁Ant	-3893
▁Those	-3894
▁fatal	-3895
▁combat	-3896
▁pulled	-3897
▁fighting	-3898
illy	-3899
▁Eur	-3900
▁scr	-3901
▁Anat	-3902
▁Bolk	-3903
▁Mina	-3904
▁carp	-3905
▁gain	-3906
▁mast	-3907
▁Mother	-3908
▁explan	-3909
▁heroes	-3910
▁hollow	-3911
▁private	-3912
▁mistaken	-3913
▁absolutely	-3914
▁opportunity	-3915
ux	-3916
apt	-3917
ino	-3918
uce	-3919
▁Po	-3920
rain	-3921
▁rad	-3922
▁rob	-3923
▁Each	-3924
▁dull	-3925
▁hole	-3926
▁pron	-3927
▁advice	-3928
▁charge	-3929
▁clever	-3930
▁pieces	-3931
▁monster	-3932
▁entering	-3933
pre	-3934
rows	-3935
▁Thy	-3936
▁rum	-3937
▁ton	-3938
aches	-3939
cknow	-3940
▁ease	-3941
▁hate	-3942
▁symp	-3943
▁tomb	-3944
crates	-3945
▁admit	-3946
▁hence	-3947
▁Gatsby	-3948
▁flying	-3949
▁Fernand	-3950
▁mistake	-3951
▁sleeping	-3952
▁III	-3953
ivity	-3954
venge	-3955
▁Fant	-3956
feyrac	-3957
rehens	-3958
▁brill	-3959
▁minds	-3960
▁Chteau	-3961
▁strang	-3962
▁quietly	-3963
▁extraord	-3964
▁familiar	-3965
AL	-3966
▁Tu	-3967
hold	-3968
▁cous	-3969
▁ener	-3970
▁rare	-3971
▁displ	-3972
▁estab	-3973
▁withd	-3974
▁acknow	-3975
▁Bonapart	-3976
▁previous	-3977
▁everywhere	-3978
ses	-3979
▁cup	-3980
▁har	-3981
▁groan	-3982
▁ideal	-3983
▁ranks	-3984
▁rough	-3985
▁stair	-3986
▁Silver	-3987
▁advent	-3988
▁points	-3989
▁reader	-3990
▁Collins	-3991
▁goddess	-3992
▁reality	-3993
▁regular	-3994
▁removed	-3995
▁violent	-3996
▁Socrates	-3997
▁surrounded	-3998
▁acquaintance	-3999
▁XI	-4000
anti	-4001
▁dom	-4002
▁pet	-4003
ailed	-4004
▁fail	-4005
▁stat	-4006
arbuck	-4007
iments	-4008
▁anger	-4009
▁aware	-4010
▁benef	-4011
athered	-4012
▁sovere	-4013
▁waters	-4014
▁continually	-4015
ney	-4016
▁IV	-4017
▁gle	-4018
▁sire	-4019
▁catch	-4020
▁stars	-4021
▁proved	-4022
▁tranqu	-4023
▁finding	-4024
▁singing	-4025
▁splendid	-4026
▁otherwise	-4027
ee	-4028
▁8	-4029
▁i	-4030
ogr	-4031
▁Il	-4032
▁Pvl	-4033
▁Tur	-4034
▁meth	-4035
▁myst	-4036
▁taste	-4037
▁Heaven	-4038
▁desper	-4039
▁famous	-4040
▁lovely	-4041
▁Minerva	-4042
▁descended	-4043
▁described	-4044
het	-4045
▁II	-4046
▁Sw	-4047
clus	-4048
noon	-4049
will	-4050
avalc	-4051
ucket	-4052
▁Geor	-4053
▁pair	-4054
▁picked	-4055
▁sounds	-4056
▁voyage	-4057
▁finally	-4058
▁project	-4059
▁shining	-4060
▁gathered	-4061
▁authority	-4062
▁Courfeyrac	-4063
▁17	-4064
▁dA	-4065
ault	-4066
▁New	-4067
▁vig	-4068
ctors	-4069
▁Alas	-4070
▁Once	-4071
▁pant	-4072
▁shed	-4073
▁shop	-4074
▁grant	-4075
▁rooms	-4076
▁German	-4077
▁assure	-4078
▁hither	-4079
▁interv	-4080
▁prefer	-4081
▁pushed	-4082
▁hastily	-4083
▁confidence	-4084
▁determined	-4085
▁extraordinary	-4086
ify	-4087
ocr	-4088
reg	-4089
quod	-4090
▁Luc	-4091
asing	-4092
estic	-4093
▁Wick	-4094
justice	-4095
▁hidden	-4096
▁hospit	-4097
▁office	-4098
▁tongue	-4099
▁Anatole	-4100
▁arrange	-4101
▁counsel	-4102
▁earnest	-4103
▁stepped	-4104
▁contempl	-4105
▁accustomed	-4106
por	-4107
▁impl	-4108
▁pros	-4109
▁whir	-4110
▁avoid	-4111
▁feast	-4112
▁skies	-4113
▁SaintM	-4114
▁agreed	-4115
▁gazing	-4116
▁school	-4117
▁winter	-4118
▁equally	-4119
▁wedding	-4120
▁peasants	-4121
▁progress	-4122
▁accompanied	-4123
agg	-4124
bour	-4125
unch	-4126
▁Lyd	-4127
▁elb	-4128
▁fac	-4129
ading	-4130
▁chim	-4131
▁exch	-4132
▁pill	-4133
ouring	-4134
▁adjut	-4135
▁calls	-4136
▁miles	-4137
▁smell	-4138
alities	-4139
▁Pequod	-4140
▁invent	-4141
▁regret	-4142
▁stands	-4143
▁conceal	-4144
▁Starbuck	-4145
▁laughter	-4146
▁resolved	-4147
ugn	-4148
▁mal	-4149
▁aunt	-4150
▁helm	-4151
▁pick	-4152
▁dared	-4153
▁dwell	-4154
▁flame	-4155
▁terms	-4156
▁design	-4157
▁fortun	-4158
▁severe	-4159
▁stairs	-4160
▁England	-4161
▁highest	-4162
▁demanded	-4163
▁magnific	-4164
▁departure	-4165
▁sufficient	-4166
▁Aj	-4167
!...	-4168
▁Dais	-4169
▁West	-4170
▁clim	-4171
▁tired	-4172
▁truly	-4173
▁venge	-4174
▁Cavalc	-4175
▁genius	-4176
▁pardon	-4177
▁social	-4178
▁throat	-4179
▁whence	-4180
▁precise	-4181
▁arranged	-4182
▁rendered	-4183
▁unfortun	-4184
▁explained	-4185
▁conscience	-4186
eu	-4187
azz	-4188
▁om	-4189
ture	-4190
▁Hark	-4191
▁cook	-4192
▁fled	-4193
▁heat	-4194
▁worn	-4195
rified	-4196
▁birth	-4197
▁cries	-4198
▁frown	-4199
▁fully	-4200
▁upper	-4201
▁wheel	-4202
fortune	-4203
▁amount	-4204
▁deeply	-4205
▁leaning	-4206
▁confused	-4207
▁Catherine	-4208
▁afternoon	-4209
gan	-4210
irm	-4211
oul	-4212
▁Oz	-4213
face	-4214
▁grad	-4215
▁sees	-4216
▁Which	-4217
▁blame	-4218
▁fever	-4219
▁lance	-4220
▁attent	-4221
▁handed	-4222
▁rolled	-4223
▁summer	-4224
▁theres	-4225
▁wisdom	-4226
▁emotion	-4227
▁directly	-4228
▁discover	-4229
▁destroyed	-4230
▁relations	-4231
asc	-4232
nsk	-4233
▁Pol	-4234
ators	-4235
▁Lion	-4236
▁Thou	-4237
▁dish	-4238
▁gaze	-4239
▁hell	-4240
roclus	-4241
▁horiz	-4242
▁raise	-4243
▁subst	-4244
▁whist	-4245
▁infant	-4246
▁content	-4247
▁process	-4248
▁carrying	-4249
▁directed	-4250
▁millions	-4251
▁dangerous	-4252
▁injustice	-4253
!"	-4254
ral	-4255
ares	-4256
iece	-4257
road	-4258
uing	-4259
abbit	-4260
orous	-4261
▁rate	-4262
▁Again	-4263
▁aloud	-4264
▁turns	-4265
▁Russia	-4266
▁centre	-4267
▁thirst	-4268
▁Grecian	-4269
▁fifteen	-4270
▁univers	-4271
▁deserted	-4272
▁infinite	-4273
▁shouting	-4274
ese	-4275
coat	-4276
hend	-4277
iest	-4278
rors	-4279
rose	-4280
▁Ber	-4281
▁bul	-4282
▁fee	-4283
acles	-4284
ugust	-4285
▁Arth	-4286
▁gray	-4287
orough	-4288
▁straw	-4289
▁wants	-4290
▁Europe	-4291
▁tonight	-4292
▁mountain	-4293
▁intention	-4294
▁misfortune	-4295
SE	-4296
mt	-4297
▁9	-4298
ait	-4299
ette	-4300
port	-4301
uish	-4302
rated	-4303
▁glit	-4304
▁mult	-4305
▁tear	-4306
▁shape	-4307
ogether	-4308
▁chiefs	-4309
▁disapp	-4310
▁forces	-4311
▁method	-4312
▁obtain	-4313
▁square	-4314
▁undert	-4315
▁useful	-4316
▁constit	-4317
▁generals	-4318
▁regarded	-4319
▁treasure	-4320
▁recognize	-4321
▁information	-4322
Th	-4323
igs	-4324
war	-4325
▁je	-4326
▁oh	-4327
rily	-4328
▁ess	-4329
asons	-4330
dered	-4331
▁Coss	-4332
▁Prof	-4333
▁bill	-4334
▁dign	-4335
▁nice	-4336
▁rope	-4337
▁sway	-4338
▁weap	-4339
rehend	-4340
▁boots	-4341
▁shade	-4342
▁staff	-4343
▁style	-4344
▁timid	-4345
▁native	-4346
▁stones	-4347
▁Woodman	-4348
▁actions	-4349
▁numbers	-4350
▁whisper	-4351
▁immortal	-4352
▁muttered	-4353
▁ordinary	-4354
▁stronger	-4355
▁companions	-4356
min	-4357
you	-4358
bing	-4359
▁bal	-4360
▁vic	-4361
eding	-4362
▁wand	-4363
▁ways	-4364
▁claim	-4365
▁elder	-4366
▁mourn	-4367
▁penet	-4368
▁wings	-4369
▁bearing	-4370
▁playing	-4371
▁signific	-4372
▁Patroclus	-4373
▁creatures	-4374
▁importance	-4375
▁imagination	-4376
▁interesting	-4377
And	-4378
key	-4379
raw	-4380
OMEO	-4381
fice	-4382
▁bos	-4383
▁lit	-4384
▁gest	-4385
▁wond	-4386
ondret	-4387
▁harpo	-4388
▁animal	-4389
▁aspect	-4390
▁cheeks	-4391
▁gently	-4392
▁poison	-4393
▁tumult	-4394
▁entreat	-4395
▁travell	-4396
▁Jonathan	-4397
▁extended	-4398
▁delighted	-4399
▁sacrifice	-4400
▁sovereign	-4401
▁Cavalcanti	-4402
01	-4403
AD	-4404
▁Hes	-4405
▁iss	-4406
▁kit	-4407
itive	-4408
iture	-4409
oused	-4410
▁Glau	-4411
▁Pont	-4412
▁edge	-4413
▁obst	-4414
▁prize	-4415
▁gained	-4416
▁insult	-4417
▁surely	-4418
▁Jondret	-4419
▁nations	-4420
▁proport	-4421
▁working	-4422
▁Bolknski	-4423
▁possibly	-4424
▁thorough	-4425
▁astonishment	-4426
ann	-4427
▁Hl	-4428
▁TO	-4429
cies	-4430
mans	-4431
erves	-4432
estor	-4433
▁Ajax	-4434
▁game	-4435
▁pack	-4436
▁rush	-4437
▁wear	-4438
erning	-4439
▁ocean	-4440
▁purch	-4441
▁Indeed	-4442
▁joined	-4443
▁nation	-4444
▁wholly	-4445
▁measure	-4446
▁weather	-4447
▁generous	-4448
▁pointing	-4449
▁lightning	-4450
▁cop	-4451
▁lin	-4452
▁lot	-4453
▁bree	-4454
▁grey	-4455
▁lest	-4456
▁oper	-4457
▁rear	-4458
▁vari	-4459
▁yard	-4460
eneral	-4461
▁built	-4462
▁dance	-4463
▁facts	-4464
▁queen	-4465
▁buried	-4466
▁driven	-4467
▁resist	-4468
▁desired	-4469
▁support	-4470
▁increased	-4471
RE	-4472
▁Bal	-4473
iable	-4474
opher	-4475
▁cott	-4476
▁exha	-4477
ensive	-4478
▁arose	-4479
▁named	-4480
▁skill	-4481
▁choose	-4482
▁eating	-4483
▁kindly	-4484
▁prayer	-4485
▁transl	-4486
▁sympath	-4487
▁Martians	-4488
▁somewhere	-4489
CE	-4490
It	-4491
of	-4492
bid	-4493
aign	-4494
▁bri	-4495
▁ham	-4496
▁ing	-4497
ighed	-4498
▁fulf	-4499
▁ROMEO	-4500
▁Robin	-4501
▁exerc	-4502
▁knife	-4503
▁plans	-4504
▁coffin	-4505
▁depths	-4506
▁Profess	-4507
▁inhabit	-4508
▁pretend	-4509
▁protect	-4510
▁retired	-4511
▁Republic	-4512
▁distress	-4513
▁involunt	-4514
▁brilliant	-4515
▁returning	-4516
▁acquainted	-4517
IL	-4518
sey	-4519
▁ax	-4520
▁ge	-4521
ilty	-4522
acity	-4523
udden	-4524
▁cler	-4525
▁hurt	-4526
▁rust	-4527
atures	-4528
ulated	-4529
▁absor	-4530
▁corre	-4531
▁flesh	-4532
▁ghost	-4533
▁merry	-4534
▁sewer	-4535
▁During	-4536
▁credit	-4537
▁remind	-4538
▁steeds	-4539
▁Fantine	-4540
▁inspect	-4541
▁accident	-4542
▁personal	-4543
▁touching	-4544
▁conception	-4545
▁considerable	-4546
upp	-4547
▁Bert	-4548
▁Next	-4549
▁reck	-4550
▁Water	-4551
▁pause	-4552
▁played	-4553
▁enemies	-4554
▁kindness	-4555
▁powerful	-4556
▁revolution	-4557
TH	-4558
chen	-4559
ores	-4560
▁Maj	-4561
▁Hill	-4562
▁Mean	-4563
illery	-4564
▁caval	-4565
▁coast	-4566
▁level	-4567
▁paces	-4568
▁spend	-4569
▁weeks	-4570
▁guests	-4571
▁strike	-4572
▁require	-4573
▁warrior	-4574
▁explanation	-4575
lev	-4576
osen	-4577
▁Ali	-4578
▁pin	-4579
▁saf	-4580
aping	-4581
▁plun	-4582
▁major	-4583
▁serve	-4584
▁Sudden	-4585
▁condem	-4586
▁enemys	-4587
▁excuse	-4588
▁savage	-4589
▁calling	-4590
▁raising	-4591
▁request	-4592
▁mistress	-4593
▁naturally	-4594
▁pleasures	-4595
▁impression	-4596
can	-4597
kin	-4598
orse	-4599
▁peo	-4600
▁Eury	-4601
▁drop	-4602
▁frag	-4603
▁sour	-4604
oubled	-4605
umbled	-4606
▁swall	-4607
▁batter	-4608
▁refuse	-4609
▁details	-4610
▁mounted	-4611
▁campaign	-4612
▁employed	-4613
▁confusion	-4614
▁altogether	-4615
▁destruction	-4616
IO	-4617
dy	-4618
▁Bag	-4619
▁env	-4620
▁lan	-4621
house	-4622
ourge	-4623
▁inex	-4624
▁subm	-4625
▁wake	-4626
ashing	-4627
uments	-4628
▁Sperm	-4629
▁cabin	-4630
▁cases	-4631
▁moral	-4632
▁ridic	-4633
▁suppl	-4634
▁worst	-4635
▁guilty	-4636
▁marked	-4637
▁render	-4638
▁wretch	-4639
▁eternal	-4640
▁fellows	-4641
▁hanging	-4642
▁citizens	-4643
▁Sometimes	-4644
▁contained	-4645
▁Everything	-4646
lect	-4647
▁wel	-4648
acher	-4649
owder	-4650
stand	-4651
▁glim	-4652
idable	-4653
▁bones	-4654
▁flood	-4655
▁sheep	-4656
▁Theres	-4657
▁afford	-4658
▁calcul	-4659
▁castle	-4660
▁needed	-4661
▁Another	-4662
▁anxiety	-4663
▁princip	-4664
▁concerning	-4665
▁connection	-4666
▁Christopher	-4667
yp	-4668
gic	-4669
rol	-4670
▁10	-4671
▁diam	-4672
▁flag	-4673
▁holy	-4674
▁bosom	-4675
▁gates	-4676
▁infer	-4677
▁toler	-4678
▁Arthur	-4679
▁abrupt	-4680
▁dreams	-4681
▁exceed	-4682
▁gather	-4683
▁nights	-4684
▁thanks	-4685
▁Bertucc	-4686
▁Pierres	-4687
▁Wickham	-4688
▁capable	-4689
▁compass	-4690
▁keeping	-4691
▁leading	-4692
▁dressing	-4693
▁slightly	-4694
▁apartment	-4695
▁political	-4696
ih	-4697
rs	-4698
Ren	-4699
eur	-4700
iam	-4701
▁Up	-4702
lock	-4703
with	-4704
▁bid	-4705
▁bou	-4706
bourg	-4707
iance	-4708
anches	-4709
▁cruel	-4710
▁falls	-4711
▁lover	-4712
▁works	-4713
respond	-4714
▁candle	-4715
▁jumped	-4716
▁Through	-4717
▁seeking	-4718
▁Emperors	-4719
▁actually	-4720
▁attached	-4721
▁becoming	-4722
▁humanity	-4723
▁relation	-4724
▁gradually	-4725
▁staircase	-4726
▁astonished	-4727
alt	-4728
ache	-4729
▁der	-4730
▁sen	-4731
▁arch	-4732
▁shru	-4733
▁torn	-4734
▁wing	-4735
▁fetch	-4736
▁squad	-4737
▁Rabbit	-4738
▁affect	-4739
▁assass	-4740
▁bodies	-4741
▁chosen	-4742
▁cousin	-4743
▁enthus	-4744
▁palace	-4745
▁animals	-4746
▁colonel	-4747
▁desires	-4748
▁eagerly	-4749
▁picture	-4750
▁revenge	-4751
▁cheerful	-4752
▁original	-4753
▁mountains	-4754
▁stretched	-4755
eer	-4756
vol	-4757
ints	-4758
quis	-4759
▁Hel	-4760
▁ate	-4761
place	-4762
urity	-4763
▁fame	-4764
keeper	-4765
▁Would	-4766
▁bride	-4767
▁swell	-4768
onsense	-4769
▁Street	-4770
▁poetry	-4771
▁assumed	-4772
▁Suddenly	-4773
▁trembled	-4774
▁Jondrette	-4775
▁Meanwhile	-4776
▁frightful	-4777
▁correspond	-4778
rie	-4779
▁bew	-4780
▁obv	-4781
▁lear	-4782
▁pave	-4783
▁prod	-4784
▁rank	-4785
▁term	-4786
▁toss	-4787
▁badly	-4788
▁indul	-4789
▁sport	-4790
▁waist	-4791
▁wrath	-4792
▁Bagrat	-4793
▁crying	-4794
▁wooden	-4795
▁kitchen	-4796
▁sailors	-4797
▁argument	-4798
▁ignorant	-4799
▁innocent	-4800
▁concerned	-4801
awn	-4802
▁Pre	-4803
▁sof	-4804
▁Gods	-4805
▁Phil	-4806
Renaud	-4807
▁awful	-4808
▁frame	-4809
▁illum	-4810
▁overt	-4811
▁spark	-4812
▁beings	-4813
▁estate	-4814
▁flames	-4815
▁convict	-4816
▁observe	-4817
▁surface	-4818
▁instance	-4819
▁Alexander	-4820
▁possibility	-4821
▁Nevertheless	-4822
chn	-4823
elt	-4824
▁Yu	-4825
cent	-4826
kins	-4827
▁mud	-4828
oring	-4829
▁flat	-4830
▁mort	-4831
▁resp	-4832
▁shel	-4833
▁test	-4834
pelled	-4835
▁distr	-4836
▁fears	-4837
▁signs	-4838
▁tempt	-4839
▁bottle	-4840
▁fisher	-4841
▁flower	-4842
kerchief	-4843
▁blessed	-4844
▁existed	-4845
▁shudder	-4846
▁accepted	-4847
▁belonged	-4848
▁composed	-4849
▁features	-4850
▁informed	-4851
▁minister	-4852
▁struggle	-4853
▁Bertuccio	-4854
▁Professor	-4855
▁artillery	-4856
▁committed	-4857
▁apparently	-4858
▁satisfaction	-4859
osy	-4860
▁Hs	-4861
enes	-4862
whel	-4863
▁Bor	-4864
▁dam	-4865
inder	-4866
ptych	-4867
▁pace	-4868
▁tale	-4869
▁reign	-4870
▁rever	-4871
▁spare	-4872
ization	-4873
▁defend	-4874
▁leaned	-4875
▁secure	-4876
▁Alptych	-4877
▁capital	-4878
▁manners	-4879
▁masters	-4880
▁painful	-4881
▁peoples	-4882
▁reasons	-4883
▁Russians	-4884
▁adjutant	-4885
▁admitted	-4886
▁branches	-4887
▁declared	-4888
▁precious	-4889
▁reproach	-4890
▁proceeded	-4891
▁ChteauRenaud	-4892
▁intelligence	-4893
▁distinguished	-4894
▁11	-4895
rier	-4896
uced	-4897
▁ens	-4898
▁mat	-4899
▁Ital	-4900
▁blaz	-4901
▁busy	-4902
▁mate	-4903
▁swim	-4904
lessly	-4905
unning	-4906
▁flank	-4907
▁hills	-4908
▁weary	-4909
▁woods	-4910
▁arrive	-4911
▁couple	-4912
▁disord	-4913
▁safety	-4914
▁ashamed	-4915
▁consult	-4916
▁pursued	-4917
▁contempt	-4918
▁presents	-4919
▁vengeance	-4920
▁principles	-4921
▁handkerchief	-4922
wl	-4923
thy	-4924
▁pos	-4925
▁pot	-4926
agger	-4927
icity	-4928
ology	-4929
otted	-4930
▁arts	-4931
▁Daisy	-4932
▁delay	-4933
▁knock	-4934
▁mater	-4935
▁rocks	-4936
▁steel	-4937
▁value	-4938
▁fourth	-4939
▁instru	-4940
▁observ	-4941
▁sevent	-4942
▁thinks	-4943
▁cavalry	-4944
▁driving	-4945
▁hideous	-4946
▁connected	-4947
5.	-4948
▁Wu	-4949
aria	-4950
aunt	-4951
lict	-4952
seen	-4953
▁coo	-4954
▁fer	-4955
▁reb	-4956
▁embr	-4957
▁Hence	-4958
▁depri	-4959
▁flung	-4960
▁belief	-4961
▁gesture	-4962
▁managed	-4963
▁procure	-4964
▁quitted	-4965
▁refused	-4966
▁younger	-4967
▁harpoone	-4968
▁silently	-4969
▁doubtless	-4970
▁exception	-4971
▁remaining	-4972
▁friendship	-4973
▁unfortunate	-4974
02	-4975
gu	-4976
yn	-4977
▁Mi	-4978
▁Od	-4979
alls	-4980
amma	-4981
herd	-4982
ilst	-4983
lebr	-4984
udes	-4985
▁Dmt	-4986
▁nin	-4987
▁pan	-4988
▁rib	-4989
▁tea	-4990
▁heap	-4991
▁inev	-4992
▁nerv	-4993
▁sank	-4994
▁seam	-4995
isions	-4996
utions	-4997
▁Three	-4998
▁drunk	-4999
▁excit	-5000
▁feels	-5001
▁hoped	-5002
▁poets	-5003
▁convey	-5004
▁corpse	-5005
▁coward	-5006
▁encoun	-5007
▁stayed	-5008
▁glancing	-5009
▁condemned	-5010
UT	-5011
ads	-5012
com	-5013
geon	-5014
▁Hay	-5015
▁hol	-5016
▁jew	-5017
alous	-5018
▁musk	-5019
▁wept	-5020
▁Baron	-5021
▁Queen	-5022
▁bears	-5023
▁guide	-5024
▁uncle	-5025
▁celebr	-5026
▁repeat	-5027
▁stared	-5028
▁vision	-5029
▁council	-5030
▁follows	-5031
▁plainly	-5032
▁treated	-5033
▁Moreover	-5034
▁baroness	-5035
▁examined	-5036
▁overwhel	-5037
▁desperate	-5038
▁represent	-5039
▁separated	-5040
▁excitement	-5041
▁magnificent	-5042
ION	-5043
ems	-5044
rom	-5045
▁Mo	-5046
icip	-5047
imin	-5048
umes	-5049
▁VII	-5050
▁rig	-5051
▁tur	-5052
▁crow	-5053
▁inde	-5054
▁meat	-5055
▁ratt	-5056
▁skin	-5057
asures	-5058
ateful	-5059
▁Penel	-5060
▁agony	-5061
▁simpl	-5062
utation	-5063
▁colour	-5064
▁uneasy	-5065
▁foreign	-5066
▁furious	-5067
▁setting	-5068
▁Countess	-5069
▁affected	-5070
▁breaking	-5071
▁comrades	-5072
▁breathing	-5073
rov	-5074
▁bab	-5075
▁exh	-5076
▁obt	-5077
ishes	-5078
itate	-5079
▁toil	-5080
inging	-5081
▁Lydia	-5082
▁ended	-5083
▁stiff	-5084
▁waste	-5085
ulation	-5086
▁Austri	-5087
▁consid	-5088
▁sailor	-5089
▁thread	-5090
▁uncons	-5091
▁figures	-5092
▁galleys	-5093
▁happens	-5094
▁contrast	-5095
▁striking	-5096
▁distinguish	-5097
AS	-5098
rm	-5099
hic	-5100
pap	-5101
vrig	-5102
▁ice	-5103
▁woe	-5104
bable	-5105
ental	-5106
erted	-5107
▁High	-5108
▁crit	-5109
▁east	-5110
▁mart	-5111
arrass	-5112
ivered	-5113
▁Julie	-5114
▁bench	-5115
▁clock	-5116
▁fleet	-5117
▁mercy	-5118
▁shirt	-5119
▁solid	-5120
▁youll	-5121
▁branch	-5122
▁finish	-5123
▁porter	-5124
▁Trojans	-5125
▁consent	-5126
▁objects	-5127
▁weeping	-5128
▁continue	-5129
▁announced	-5130
▁interests	-5131
▁presently	-5132
▁frequently	-5133
▁resolution	-5134
has	-5135
law	-5136
pus	-5137
ris	-5138
ums	-5139
fect	-5140
izes	-5141
oubt	-5142
▁Mag	-5143
▁Sim	-5144
▁pil	-5145
▁spl	-5146
▁wet	-5147
pired	-5148
pless	-5149
▁Pres	-5150
▁cord	-5151
▁grie	-5152
▁keen	-5153
apping	-5154
▁sorts	-5155
▁swear	-5156
▁firing	-5157
▁intend	-5158
▁manage	-5159
▁careful	-5160
▁chariot	-5161
▁foolish	-5162
▁mystery	-5163
▁rolling	-5164
▁thither	-5165
▁willing	-5166
▁commands	-5167
▁midnight	-5168
▁furniture	-5169
▁comprehend	-5170
▁formidable	-5171
▁reflection	-5172
▁nevertheless	-5173
ENT	-5174
amb	-5175
aeus	-5176
ands	-5177
khyl	-5178
lers	-5179
▁dil	-5180
▁liv	-5181
alled	-5182
inted	-5183
▁Hlne	-5184
▁List	-5185
▁deed	-5186
▁tend	-5187
vrigny	-5188
▁Madam	-5189
▁Romeo	-5190
▁boast	-5191
▁maids	-5192
▁absent	-5193
▁attrib	-5194
▁causes	-5195
▁purple	-5196
▁states	-5197
▁worked	-5198
▁usually	-5199
▁activity	-5200
▁daylight	-5201
▁meantime	-5202
▁weakness	-5203
▁Frenchman	-5204
▁ignorance	-5205
▁movements	-5206
▁proportion	-5207
If	-5208
fs	-5209
vi	-5210
IET	-5211
tel	-5212
uzz	-5213
ieve	-5214
▁dig	-5215
▁oil	-5216
▁tit	-5217
umber	-5218
▁Nant	-5219
▁farm	-5220
▁Marse	-5221
▁Since	-5222
▁armed	-5223
▁desir	-5224
▁fired	-5225
▁stuff	-5226
▁winds	-5227
▁Mikhyl	-5228
▁fought	-5229
▁wounds	-5230
▁Glaucon	-5231
▁prepare	-5232
▁produce	-5233
▁attitude	-5234
▁building	-5235
▁coachman	-5236
▁whenever	-5237
▁abandoned	-5238
▁execution	-5239
▁conclusion	-5240
▁remarkable	-5241
▁inhabitants	-5242
amm	-5243
uge	-5244
quet	-5245
rien	-5246
work	-5247
▁fro	-5248
▁vex	-5249
ician	-5250
osure	-5251
▁Eugn	-5252
▁Give	-5253
▁Mars	-5254
▁abst	-5255
▁lack	-5256
▁nodd	-5257
▁oath	-5258
▁pipe	-5259
▁tent	-5260
▁Italy	-5261
▁final	-5262
▁loves	-5263
▁nurse	-5264
▁recom	-5265
▁uncom	-5266
▁youre	-5267
ounding	-5268
▁encour	-5269
▁excess	-5270
▁hunger	-5271
▁quiver	-5272
▁wheels	-5273
▁contrad	-5274
▁correct	-5275
▁diamond	-5276
▁wearing	-5277
▁Waterloo	-5278
▁perceive	-5279
▁vanished	-5280
▁appointed	-5281
▁qualities	-5282
▁assistance	-5283
▁previously	-5284
▁description	-5285
2.	-5286
eg	-5287
But	-5288
eps	-5289
rem	-5290
What	-5291
ancy	-5292
bits	-5293
cast	-5294
form	-5295
▁HIS	-5296
▁Men	-5297
▁Mer	-5298
▁Old	-5299
▁irr	-5300
▁som	-5301
▁anch	-5302
▁eleg	-5303
▁jave	-5304
▁pall	-5305
▁sofa	-5306
▁writ	-5307
▁About	-5308
▁angel	-5309
▁crack	-5310
▁notes	-5311
▁porch	-5312
▁August	-5313
▁George	-5314
▁armies	-5315
▁burned	-5316
▁failed	-5317
▁hungry	-5318
▁nodded	-5319
▁taught	-5320
▁General	-5321
▁alarmed	-5322
▁dragged	-5323
▁forever	-5324
▁horizon	-5325
▁Bagratin	-5326
▁bringing	-5327
▁faithful	-5328
▁formerly	-5329
▁moreover	-5330
▁upstairs	-5331
▁Nantucket	-5332
▁concluded	-5333
▁embarrass	-5334
▁preceding	-5335
▁historians	-5336
EL	-5337
gl	-5338
aul	-5339
isp	-5340
icks	-5341
omen	-5342
▁Rev	-5343
▁Vir	-5344
asket	-5345
ulate	-5346
▁Sept	-5347
▁mood	-5348
▁wave	-5349
ocracy	-5350
▁Champ	-5351
▁Dmtri	-5352
▁cours	-5353
▁drank	-5354
▁yards	-5355
▁begins	-5356
▁choice	-5357
▁gallop	-5358
▁interp	-5359
▁rulers	-5360
▁anguish	-5361
▁violence	-5362
▁agreeable	-5363
▁guardians	-5364
▁thoroughly	-5365
ox	-5366
nes	-5367
rya	-5368
uns	-5369
urd	-5370
▁13	-5371
chan	-5372
ulse	-5373
▁Dan	-5374
aries	-5375
▁Hell	-5376
▁Soon	-5377
▁prey	-5378
▁rout	-5379
▁subl	-5380
levard	-5381
▁Thank	-5382
▁artic	-5383
▁blows	-5384
▁manif	-5385
▁unple	-5386
▁bourge	-5387
▁praise	-5388
▁Italian	-5389
▁collect	-5390
▁related	-5391
▁remarks	-5392
▁principal	-5393
▁reflected	-5394
▁universal	-5395
▁conditions	-5396
leg	-5397
?...	-5398
omin	-5399
▁Ith	-5400
▁wag	-5401
ULIET	-5402
cript	-5403
▁adop	-5404
▁cong	-5405
▁defe	-5406
riages	-5407
▁awake	-5408
▁guest	-5409
▁needs	-5410
▁renew	-5411
▁revol	-5412
▁shone	-5413
▁brains	-5414
▁amongst	-5415
▁nervous	-5416
▁absorbed	-5417
▁expecting	-5418
▁strangers	-5419
▁addressing	-5420
RO	-5421
alf	-5422
bye	-5423
off	-5424
▁Di	-5425
▁Ly	-5426
▁ic	-5427
fall	-5428
hand	-5429
opes	-5430
▁Him	-5431
athed	-5432
eries	-5433
gment	-5434
▁Mrya	-5435
▁Poor	-5436
▁quit	-5437
▁sear	-5438
ooping	-5439
▁beard	-5440
▁fires	-5441
▁limbs	-5442
▁slave	-5443
▁wrink	-5444
▁Eugnie	-5445
▁magist	-5446
▁murder	-5447
▁retire	-5448
▁dignity	-5449
▁popular	-5450
▁hastened	-5451
▁inclined	-5452
▁entertain	-5453
6.	-5454
ED	-5455
IG	-5456
rep	-5457
ifts	-5458
rous	-5459
▁Arg	-5460
▁Tin	-5461
▁ard	-5462
▁aut	-5463
▁cas	-5464
onder	-5465
▁Till	-5466
▁obsc	-5467
▁outl	-5468
▁risk	-5469
▁size	-5470
▁sole	-5471
leness	-5472
▁Apoll	-5473
▁Ithac	-5474
▁Whats	-5475
▁angle	-5476
▁disci	-5477
▁fatig	-5478
▁north	-5479
▁sheet	-5480
▁south	-5481
▁sperm	-5482
▁Guards	-5483
▁Rostop	-5484
▁consol	-5485
▁duties	-5486
▁forbid	-5487
▁helped	-5488
▁loudly	-5489
▁pursue	-5490
▁signal	-5491
▁sooner	-5492
▁fearful	-5493
▁pierced	-5494
▁unpleas	-5495
▁fastened	-5496
▁Marseilles	-5497
▁od	-5498
rels	-5499
rene	-5500
urre	-5501
utch	-5502
▁Abb	-5503
▁Pri	-5504
▁Ven	-5505
▁bas	-5506
arted	-5507
▁gend	-5508
▁rang	-5509
▁veil	-5510
versed	-5511
▁Hayde	-5512
▁eaten	-5513
▁trial	-5514
▁JULIET	-5515
▁intent	-5516
▁loving	-5517
▁shouts	-5518
▁throng	-5519
▁utmost	-5520
▁closely	-5521
▁shaking	-5522
▁division	-5523
▁heavenly	-5524
▁September	-5525
EC	-5526
bar	-5527
ork	-5528
▁14	-5529
▁iv	-5530
▁tap	-5531
eyore	-5532
inlaw	-5533
kward	-5534
▁Odys	-5535
▁Sund	-5536
▁cool	-5537
▁harb	-5538
▁lion	-5539
▁mant	-5540
▁mild	-5541
▁oars	-5542
▁sell	-5543
▁shep	-5544
▁sous	-5545
▁vale	-5546
▁west	-5547
icking	-5548
isible	-5549
urance	-5550
▁clasp	-5551
▁erect	-5552
▁hunts	-5553
▁plant	-5554
▁refer	-5555
▁stick	-5556
▁stout	-5557
▁trace	-5558
▁vehic	-5559
▁Island	-5560
▁Listen	-5561
▁Little	-5562
▁footst	-5563
▁halted	-5564
▁indign	-5565
▁softly	-5566
▁Colonel	-5567
▁bedroom	-5568
▁comment	-5569
▁devoted	-5570
▁hussars	-5571
▁prayers	-5572
▁rushing	-5573
▁pavement	-5574
▁visitors	-5575
▁receiving	-5576
▁Mikhylovna	-5577
▁circumstance	-5578
▁involuntarily	-5579
0.	-5580
▁FR	-5581
oons	-5582
▁Tis	-5583
▁glo	-5584
▁tro	-5585
▁won	-5586
apsed	-5587
rious	-5588
▁obed	-5589
erving	-5590
▁White	-5591
▁Witch	-5592
▁flash	-5593
▁linen	-5594
▁liter	-5595
▁loose	-5596
▁murde	-5597
▁locked	-5598
▁strict	-5599
▁tyrant	-5600
▁beloved	-5601
▁cunning	-5602
▁element	-5603
▁wishing	-5604
▁advancing	-5605
▁exhausted	-5606
CH	-5607
ica	-5608
pin	-5609
izzy	-5610
lier	-5611
▁Fri	-5612
▁bay	-5613
▁buy	-5614
▁lat	-5615
▁tot	-5616
agues	-5617
icing	-5618
istic	-5619
▁Amer	-5620
▁Prov	-5621
▁boys	-5622
▁dazz	-5623
▁ends	-5624
▁whit	-5625
lected	-5626
▁armch	-5627
▁awoke	-5628
▁brief	-5629
▁devel	-5630
▁landl	-5631
▁Nestor	-5632
▁corrid	-5633
▁forgot	-5634
piration	-5635
▁awkward	-5636
▁chimney	-5637
▁enchant	-5638
▁heavily	-5639
▁plunged	-5640
▁portion	-5641
▁steward	-5642
▁utterly	-5643
▁nonsense	-5644
▁Bonaparte	-5645
▁Napoleons	-5646
▁bourgeois	-5647
▁conviction	-5648
▁distinctly	-5649
▁consciousness	-5650
cip	-5651
eem	-5652
iot	-5653
onc	-5654
▁VI	-5655
wood	-5656
▁CAP	-5657
▁Des	-5658
▁Has	-5659
▁pon	-5660
inity	-5661
▁East	-5662
▁Hans	-5663
▁cher	-5664
▁dise	-5665
▁gown	-5666
▁tele	-5667
▁corps	-5668
▁finds	-5669
▁sadly	-5670
▁stage	-5671
▁battal	-5672
▁bought	-5673
▁extent	-5674
▁mechan	-5675
▁powder	-5676
▁throne	-5677
▁Dmtriev	-5678
▁angrily	-5679
▁dancing	-5680
▁destiny	-5681
▁harmony	-5682
▁hostile	-5683
▁natures	-5684
▁radiant	-5685
▁crossing	-5686
▁deceived	-5687
▁imagined	-5688
▁murderer	-5689
▁obtained	-5690
▁religion	-5691
▁subjects	-5692
▁throwing	-5693
▁gratitude	-5694
▁pronounced	-5695
▁considering	-5696
▁WH	-5697
▁Ye	-5698
▁Whe	-5699
▁hut	-5700
▁wid	-5701
adise	-5702
▁Lebl	-5703
▁hang	-5704
▁mead	-5705
▁unus	-5706
▁arise	-5707
▁brown	-5708
▁chain	-5709
▁inner	-5710
itating	-5711
▁Eeyore	-5712
▁hatred	-5713
▁larger	-5714
▁parted	-5715
▁proble	-5716
▁rested	-5717
▁Bourien	-5718
▁Pvlovna	-5719
▁crowded	-5720
▁deliber	-5721
▁jealous	-5722
▁precaut	-5723
▁addition	-5724
▁glorious	-5725
▁numerous	-5726
▁quarters	-5727
▁intellect	-5728
▁precisely	-5729
▁traveller	-5730
▁admiration	-5731
▁consequence	-5732
▁drawingroom	-5733
rd	-5734
ili	-5735
aved	-5736
eral	-5737
irty	-5738
ools	-5739
pled	-5740
▁Ara	-5741
▁Cle	-5742
▁unm	-5743
natur	-5744
uries	-5745
▁June	-5746
▁ours	-5747
▁trif	-5748
▁drops	-5749
▁restr	-5750
▁shoot	-5751
▁leader	-5752
▁poured	-5753
▁source	-5754
▁victim	-5755
▁efforts	-5756
▁honours	-5757
▁kingdom	-5758
▁obscure	-5759
▁stories	-5760
▁suggest	-5761
▁agitated	-5762
▁friendly	-5763
▁inferior	-5764
▁warriors	-5765
▁engagement	-5766
▁sufficiently	-5767
You	-5768
▁Fe	-5769
▁Ro	-5770
olet	-5771
soci	-5772
▁Any	-5773
▁bag	-5774
▁alas	-5775
▁bade	-5776
▁fare	-5777
▁drown	-5778
▁indic	-5779
▁liber	-5780
▁marve	-5781
▁purse	-5782
▁teach	-5783
▁trous	-5784
▁Ithaca	-5785
▁deadly	-5786
▁incess	-5787
▁prodig	-5788
▁stroke	-5789
▁attract	-5790
▁fancied	-5791
▁knocked	-5792
▁quarrel	-5793
▁showing	-5794
▁staring	-5795
▁galloped	-5796
▁resolute	-5797
▁sacrific	-5798
▁disturbed	-5799
▁introduced	-5800
▁profession	-5801
▁accomplished	-5802
9.	-5803
tw	-5804
bus	-5805
ded	-5806
rog	-5807
▁12	-5808
▁Ty	-5809
ULET	-5810
ashv	-5811
iven	-5812
▁183	-5813
▁Ili	-5814
▁Nay	-5815
▁ric	-5816
overy	-5817
uding	-5818
▁brig	-5819
▁heed	-5820
▁rosy	-5821
▁tied	-5822
▁trou	-5823
▁block	-5824
▁cease	-5825
▁exped	-5826
▁ident	-5827
▁lands	-5828
▁shows	-5829
▁tells	-5830
▁vener	-5831
▁crimin	-5832
▁exists	-5833
▁feeble	-5834
▁loaded	-5835
▁nobody	-5836
▁beating	-5837
▁husbands	-5838
▁recalled	-5839
▁restored	-5840
▁troubled	-5841
▁SaintMran	-5842
▁invisible	-5843
IR	-5844
vet	-5845
ymn	-5846
▁ox	-5847
asse	-5848
ican	-5849
ship	-5850
uits	-5851
vest	-5852
eless	-5853
ieved	-5854
▁aged	-5855
▁buck	-5856
▁elev	-5857
▁knee	-5858
▁pred	-5859
▁rail	-5860
▁shar	-5861
▁ashes	-5862
▁medic	-5863
▁price	-5864
fulness	-5865
▁breeze	-5866
▁lights	-5867
▁prepar	-5868
▁shades	-5869
▁CAPULET	-5870
▁Neither	-5871
▁divided	-5872
▁forgive	-5873
▁reflect	-5874
▁twentyf	-5875
▁dAvrigny	-5876
▁goodness	-5877
▁overcome	-5878
▁separate	-5879
▁solitary	-5880
▁Christian	-5881
▁acknowled	-5882
▁recommend	-5883
▁suggested	-5884
▁philosophers	-5885
Oh	-5886
bly	-5887
ovel	-5888
▁unp	-5889
▁Dick	-5890
▁Span	-5891
▁bows	-5892
▁caut	-5893
▁disd	-5894
▁flee	-5895
▁prow	-5896
▁sunk	-5897
▁sust	-5898
▁Mamma	-5899
▁Menel	-5900
▁disch	-5901
▁fruit	-5902
▁marsh	-5903
▁polic	-5904
▁sails	-5905
▁sixty	-5906
▁views	-5907
▁Apollo	-5908
▁Gardin	-5909
▁invest	-5910
▁Balashv	-5911
▁vessels	-5912
▁whaling	-5913
▁arrested	-5914
▁attacked	-5915
▁delicate	-5916
▁infantry	-5917
▁pictures	-5918
▁proposed	-5919
▁intervals	-5920
ilb	-5921
▁15	-5922
outs	-5923
▁odd	-5924
amped	-5925
enter	-5926
inate	-5927
▁Bour	-5928
▁grim	-5929
▁prud	-5930
▁soil	-5931
▁Borod	-5932
▁borne	-5933
▁chase	-5934
▁outer	-5935
▁peril	-5936
▁thine	-5937
▁urged	-5938
▁associ	-5939
▁courty	-5940
▁season	-5941
▁whilst	-5942
▁invited	-5943
▁princes	-5944
▁Penelope	-5945
▁coursers	-5946
▁sympathy	-5947
▁neighbour	-5948
AM	-5949
no	-5950
hop	-5951
sed	-5952
arly	-5953
▁Alc	-5954
▁Bel	-5955
▁etc	-5956
▁hit	-5957
▁hyp	-5958
▁lux	-5959
▁owe	-5960
▁unb	-5961
enger	-5962
gging	-5963
icted	-5964
othed	-5965
▁fest	-5966
▁rele	-5967
▁ride	-5968
▁tore	-5969
verend	-5970
▁Roman	-5971
▁carts	-5972
▁irres	-5973
▁seize	-5974
ational	-5975
▁column	-5976
▁dining	-5977
▁establ	-5978
▁habits	-5979
▁handle	-5980
▁partly	-5981
▁squire	-5982
▁strain	-5983
▁weapon	-5984
▁writer	-5985
attering	-5986
▁Leblanc	-5987
▁Natshas	-5988
▁abandon	-5989
▁majesty	-5990
▁painted	-5991
▁pursuit	-5992
▁tremble	-5993
▁visitor	-5994
▁wouldnt	-5995
ification	-5996
▁Menelaus	-5997
▁constant	-5998
▁agitation	-5999
▁commanded	-6000
▁terrified	-6001
▁permission	-6002
▁occasionally	-6003
▁consideration	-6004
acc	-6005
box	-6006
mat	-6007
omy	-6008
oph	-6009
phe	-6010
ethe	-6011
oser	-6012
ques	-6013
▁Han	-6014
▁Say	-6015
▁Str	-6016
▁jaw	-6017
amemn	-6018
▁Vamp	-6019
▁base	-6020
▁butt	-6021
▁date	-6022
▁impr	-6023
▁tide	-6024
▁trap	-6025
ferent	-6026
ifying	-6027
▁Spart	-6028
▁epoch	-6029
▁instr	-6030
▁labor	-6031
▁steep	-6032
▁vault	-6033
▁vivid	-6034
amation	-6035
▁States	-6036
▁begged	-6037
▁endure	-6038
▁masses	-6039
ointment	-6040
▁Agamemn	-6041
▁million	-6042
▁nearest	-6043
▁patient	-6044
▁slipped	-6045
▁sorrows	-6046
▁abruptly	-6047
▁judgment	-6048
▁practice	-6049
▁carriages	-6050
▁slightest	-6051
▁constantly	-6052
▁recollection	-6053
euf	-6054
▁Li	-6055
book	-6056
otte	-6057
then	-6058
uten	-6059
▁Chu	-6060
▁Ste	-6061
▁Tot	-6062
▁dun	-6063
▁unl	-6064
ially	-6065
inent	-6066
pring	-6067
▁Mich	-6068
▁grap	-6069
▁memb	-6070
▁nurs	-6071
▁text	-6072
cribed	-6073
▁Faria	-6074
▁ahead	-6075
▁balls	-6076
▁bands	-6077
▁cheek	-6078
▁pains	-6079
▁plate	-6080
▁queer	-6081
▁supre	-6082
▁swept	-6083
▁tower	-6084
▁energy	-6085
▁riding	-6086
▁sighed	-6087
▁sombre	-6088
▁theory	-6089
▁Borodin	-6090
▁anybody	-6091
▁counter	-6092
▁quality	-6093
▁sincere	-6094
▁virtues	-6095
▁whereas	-6096
▁probable	-6097
▁starting	-6098
▁completed	-6099
▁courtyard	-6100
▁inspector	-6101
▁recollect	-6102
▁thousands	-6103
▁Revolution	-6104
▁interested	-6105
▁throughout	-6106
▁unpleasant	-6107
▁indifferent	-6108
7.	-6109
8.	-6110
ai	-6111
aks	-6112
aon	-6113
bys	-6114
ived	-6115
uals	-6116
▁Jim	-6117
▁Mab	-6118
▁cel	-6119
atory	-6120
olnsk	-6121
oress	-6122
▁encl	-6123
▁hers	-6124
▁jail	-6125
▁syst	-6126
estial	-6127
▁Black	-6128
▁Flask	-6129
▁Iliad	-6130
▁XVIII	-6131
▁brand	-6132
▁honey	-6133
▁shake	-6134
▁valet	-6135
herlock	-6136
looking	-6137
▁accent	-6138
▁armour	-6139
▁eldest	-6140
▁lovers	-6141
▁plenty	-6142
▁anticip	-6143
▁chiefly	-6144
▁complex	-6145
▁members	-6146
▁sentine	-6147
▁animated	-6148
▁bestowed	-6149
▁corridor	-6150
▁drinking	-6151
▁grateful	-6152
▁intimate	-6153
▁material	-6154
▁physical	-6155
▁sentence	-6156
▁Bourienne	-6157
▁attracted	-6158
▁indicated	-6159
▁inquiries	-6160
▁seriously	-6161
▁shuddered	-6162
▁delightful	-6163
▁ridiculous	-6164
3.	-6165
erl	-6166
gil	-6167
pet	-6168
rin	-6169
zed	-6170
▁Ho	-6171
iour	-6172
itty	-6173
osal	-6174
this	-6175
▁180	-6176
▁don	-6177
ocrat	-6178
▁ages	-6179
▁roar	-6180
▁sang	-6181
▁trad	-6182
isting	-6183
▁Uncle	-6184
▁chose	-6185
▁dozen	-6186
▁image	-6187
▁leads	-6188
▁naked	-6189
▁tight	-6190
▁active	-6191
▁dishon	-6192
▁extrem	-6193
▁firmly	-6194
▁lament	-6195
▁relief	-6196
fortunes	-6197
▁Majesty	-6198
▁applied	-6199
▁conquer	-6200
▁cottage	-6201
▁disturb	-6202
▁obvious	-6203
▁attended	-6204
▁disgrace	-6205
▁provided	-6206
▁disappear	-6207
▁furnished	-6208
▁hurriedly	-6209
▁permitted	-6210
▁preserved	-6211
▁indifference	-6212
erre	-6213
gent	-6214
ishd	-6215
pers	-6216
▁Bet	-6217
▁Pha	-6218
▁hed	-6219
▁loc	-6220
▁rom	-6221
▁row	-6222
▁July	-6223
▁chap	-6224
▁chin	-6225
▁flow	-6226
▁jack	-6227
▁melt	-6228
▁rays	-6229
▁vers	-6230
ilight	-6231
▁deeds	-6232
▁error	-6233
▁kinds	-6234
▁stead	-6235
raction	-6236
▁anchor	-6237
▁banker	-6238
▁contri	-6239
▁daring	-6240
▁disple	-6241
▁folded	-6242
▁highly	-6243
▁notary	-6244
▁repose	-6245
▁ruined	-6246
▁convuls	-6247
▁readily	-6248
▁sublime	-6249
▁torment	-6250
▁visited	-6251
▁Cosettes	-6252
▁compared	-6253
▁definite	-6254
▁disorder	-6255
▁helpless	-6256
▁hitherto	-6257
▁prospect	-6258
▁sensible	-6259
▁trousers	-6260
▁recovered	-6261
▁descending	-6262
▁misfortunes	-6263
UM	-6264
UN	-6265
evi	-6266
▁16	-6267
▁Du	-6268
▁IX	-6269
▁ec	-6270
anks	-6271
ials	-6272
pper	-6273
sthe	-6274
yard	-6275
▁Aye	-6276
▁Bab	-6277
▁Hur	-6278
▁Kar	-6279
▁Oct	-6280
▁Red	-6281
▁vel	-6282
▁wip	-6283
escri	-6284
rides	-6285
ulars	-6286
which	-6287
▁Poly	-6288
▁milk	-6289
▁nois	-6290
▁pour	-6291
▁wars	-6292
▁South	-6293
▁Thras	-6294
▁amuse	-6295
▁cloth	-6296
▁gifts	-6297
▁title	-6298
▁attain	-6299
▁illust	-6300
▁incomp	-6301
▁labour	-6302
▁losing	-6303
▁patron	-6304
▁prayed	-6305
▁reward	-6306
▁senses	-6307
lessness	-6308
▁Smolnsk	-6309
▁Without	-6310
▁crushed	-6311
▁javelin	-6312
▁letting	-6313
▁suspect	-6314
▁suspend	-6315
▁Sherlock	-6316
▁describe	-6317
▁indescri	-6318
▁monsieur	-6319
▁reaching	-6320
▁Dmtrievna	-6321
▁Rostopchn	-6322
▁amazement	-6323
▁extremely	-6324
▁household	-6325
▁scattered	-6326
▁glittering	-6327
sk	-6328
oqu	-6329
▁Mu	-6330
▁Pal	-6331
▁nav	-6332
ashes	-6333
ernal	-6334
▁City	-6335
▁Upon	-6336
▁Wils	-6337
▁abys	-6338
▁aven	-6339
▁bond	-6340
▁cave	-6341
▁coin	-6342
▁ecst	-6343
▁mach	-6344
▁rags	-6345
▁shri	-6346
▁vice	-6347
ograph	-6348
▁harsh	-6349
▁steam	-6350
▁toils	-6351
▁basket	-6352
▁fairly	-6353
▁marble	-6354
▁polite	-6355
▁prompt	-6356
▁sailed	-6357
▁smooth	-6358
▁string	-6359
▁funeral	-6360
▁sounded	-6361
▁armchair	-6362
▁ascended	-6363
▁conflict	-6364
▁disposed	-6365
▁summoned	-6366
rehensible	-6367
▁adventure	-6368
▁assembled	-6369
▁consisted	-6370
▁punishment	-6371
▁established	-6372
1.	-6373
In	-6374
oft	-6375
ante	-6376
etto	-6377
hern	-6378
leus	-6379
▁Ass	-6380
▁bol	-6381
▁rub	-6382
aging	-6383
inese	-6384
piece	-6385
uting	-6386
▁Both	-6387
▁Cors	-6388
▁Dear	-6389
▁Pray	-6390
▁cock	-6391
▁eyeb	-6392
▁lets	-6393
00,000	-6394
master	-6395
orable	-6396
▁Whose	-6397
▁scrut	-6398
▁serge	-6399
▁sweep	-6400
inction	-6401
▁Really	-6402
▁abroad	-6403
▁admire	-6404
▁attach	-6405
▁commit	-6406
▁obeyed	-6407
▁permit	-6408
▁series	-6409
▁shiver	-6410
▁Chinese	-6411
▁audible	-6412
▁breathe	-6413
▁concent	-6414
▁couldnt	-6415
▁glimpse	-6416
▁results	-6417
▁stretch	-6418
▁acquired	-6419
▁anywhere	-6420
▁cloister	-6421
▁executed	-6422
▁insisted	-6423
▁twilight	-6424
▁encounter	-6425
▁performed	-6426
▁celebrated	-6427
▁historical	-6428
▁thoughtful	-6429
uv	-6430
ael	-6431
osp	-6432
hire	-6433
ique	-6434
itor	-6435
otes	-6436
▁...	-6437
▁Chi	-6438
▁Pel	-6439
▁gig	-6440
▁wif	-6441
alley	-6442
peror	-6443
uable	-6444
uming	-6445
▁Berg	-6446
▁Does	-6447
▁Kung	-6448
▁clam	-6449
▁deem	-6450
▁gore	-6451
▁sche	-6452
ential	-6453
▁Enter	-6454
▁Grand	-6455
▁alike	-6456
▁clerk	-6457
▁heaps	-6458
▁mayor	-6459
▁quant	-6460
▁wives	-6461
▁assume	-6462
▁hoarse	-6463
▁inevit	-6464
▁refuge	-6465
▁settle	-6466
▁unlike	-6467
▁womans	-6468
▁Atrides	-6469
▁amiable	-6470
▁dearest	-6471
▁martial	-6472
▁respons	-6473
▁supreme	-6474
▁captured	-6475
▁independ	-6476
▁mournful	-6477
▁situated	-6478
▁Agamemnon	-6479
▁Providence	-6480
▁individuals	-6481
IV	-6482
iqu	-6483
lym	-6484
rant	-6485
▁Cat	-6486
▁Far	-6487
▁cru	-6488
anges	-6489
▁cult	-6490
▁doom	-6491
▁lift	-6492
▁mour	-6493
▁puzz	-6494
▁wash	-6495
ounted	-6496
uously	-6497
▁Jonah	-6498
▁craft	-6499
▁fiery	-6500
▁incap	-6501
▁inher	-6502
▁intim	-6503
▁merit	-6504
▁mouse	-6505
▁Harker	-6506
▁detail	-6507
▁incred	-6508
▁lasted	-6509
▁monstr	-6510
▁reappe	-6511
▁steady	-6512
▁Gregors	-6513
▁cleared	-6514
▁constru	-6515
▁display	-6516
▁doctors	-6517
▁lantern	-6518
▁lightly	-6519
▁madness	-6520
▁seconds	-6521
▁comparis	-6522
▁opinions	-6523
▁celestial	-6524
▁contented	-6525
▁slaughter	-6526
▁traversed	-6527
▁magistrate	-6528
▁tenderness	-6529
▁disposition	-6530
▁observation	-6531
my	-6532
bes	-6533
lla	-6534
▁ty	-6535
gged	-6536
iasm	-6537
▁Par	-6538
▁fol	-6539
▁fox	-6540
▁ske	-6541
▁vir	-6542
atisf	-6543
ourse	-6544
ovich	-6545
sters	-6546
zkhov	-6547
▁Were	-6548
▁doll	-6549
▁silk	-6550
erlitz	-6551
▁Lizzy	-6552
▁cares	-6553
▁dimin	-6554
▁disgu	-6555
▁elbow	-6556
▁phant	-6557
▁risen	-6558
▁brazen	-6559
▁notion	-6560
▁thresh	-6561
▁contain	-6562
▁inquire	-6563
▁unusual	-6564
▁awaiting	-6565
▁destined	-6566
▁district	-6567
▁families	-6568
▁guardian	-6569
▁inspired	-6570
▁medicine	-6571
▁persuade	-6572
▁solitude	-6573
▁compelled	-6574
▁discovery	-6575
▁elsewhere	-6576
▁meanwhile	-6577
▁sentiment	-6578
▁spectacles	-6579
▁particulars	-6580
4.	-6581
rah	-6582
▁Ha	-6583
irts	-6584
▁cyl	-6585
▁fil	-6586
▁san	-6587
▁tis	-6588
mercy	-6589
▁Tsao	-6590
▁card	-6591
▁rubb	-6592
▁spin	-6593
▁stom	-6594
manuel	-6595
▁Chang	-6596
▁Grant	-6597
▁Right	-6598
▁Youre	-6599
▁disag	-6600
▁diver	-6601
▁mixed	-6602
▁theat	-6603
▁trick	-6604
▁wasnt	-6605
utenant	-6606
▁Sunday	-6607
▁bewild	-6608
▁calmly	-6609
▁cellar	-6610
▁dashed	-6611
▁eleven	-6612
▁haught	-6613
▁hiding	-6614
▁narrat	-6615
▁signed	-6616
▁speaks	-6617
▁bending	-6618
▁created	-6619
▁disdain	-6620
▁flushed	-6621
▁leaders	-6622
▁panting	-6623
▁welcome	-6624
▁embraced	-6625
▁learning	-6626
▁maintain	-6627
▁realized	-6628
▁withdraw	-6629
▁Therefore	-6630
▁boulevard	-6631
▁collected	-6632
▁footsteps	-6633
▁prevented	-6634
▁resembled	-6635
▁threshold	-6636
▁violently	-6637
▁Englishman	-6638
▁intelligent	-6639
col	-6640
▁TH	-6641
URSE	-6642
aise	-6643
wind	-6644
▁fem	-6645
after	-6646
arged	-6647
ribly	-6648
▁Comb	-6649
▁Five	-6650
▁Most	-6651
▁Toto	-6652
▁blew	-6653
▁bord	-6654
▁diff	-6655
▁gymn	-6656
▁horn	-6657
▁slee	-6658
▁temp	-6659
▁unre	-6660
▁whip	-6661
ailing	-6662
aviour	-6663
everal	-6664
rences	-6665
▁agent	-6666
▁ample	-6667
▁brass	-6668
▁flour	-6669
▁greet	-6670
▁organ	-6671
▁whats	-6672
▁wifes	-6673
natural	-6674
▁beasts	-6675
▁danced	-6676
▁propri	-6677
▁specul	-6678
▁telegr	-6679
▁unwill	-6680
▁Bezkhov	-6681
▁Odyssey	-6682
▁belongs	-6683
▁defence	-6684
▁godlike	-6685
▁parties	-6686
▁pockets	-6687
▁resting	-6688
▁smoking	-6689
▁departed	-6690
▁politics	-6691
▁pressing	-6692
▁strongly	-6693
▁moonlight	-6694
▁suspicion	-6695
▁comfortable	-6696
▁instructions	-6697
AV	-6698
aux	-6699
bler	-6700
llen	-6701
ober	-6702
olom	-6703
plex	-6704
▁Eum	-6705
▁aug	-6706
▁sob	-6707
▁spy	-6708
▁wax	-6709
▁damp	-6710
▁foes	-6711
▁glow	-6712
▁stag	-6713
icable	-6714
mother	-6715
▁Arist	-6716
▁Helen	-6717
▁NURSE	-6718
▁Vampa	-6719
▁annoy	-6720
▁apply	-6721
▁condu	-6722
▁dirty	-6723
▁flock	-6724
▁folly	-6725
▁stuck	-6726
▁suite	-6727
▁track	-6728
▁absurd	-6729
▁burden	-6730
▁crimes	-6731
▁esteem	-6732
▁safely	-6733
▁system	-6734
▁control	-6735
▁corrupt	-6736
▁cutting	-6737
▁emerged	-6738
▁harness	-6739
▁harpoon	-6740
▁illness	-6741
▁leather	-6742
▁recover	-6743
▁reports	-6744
▁restore	-6745
▁stomach	-6746
▁valiant	-6747
▁devotion	-6748
▁landlord	-6749
▁squadron	-6750
▁ventured	-6751
▁childhood	-6752
▁fortunate	-6753
▁messenger	-6754
▁monstrous	-6755
▁Austerlitz	-6756
▁sufferings	-6757
▁civilization	-6758
wr	-6759
▁x	-6760
inn	-6761
▁ON	-6762
emet	-6763
erer	-6764
ford	-6765
lets	-6766
▁mas	-6767
▁orn	-6768
▁rav	-6769
bbing	-6770
ifted	-6771
ppino	-6772
▁Many	-6773
▁Nept	-6774
▁deny	-6775
▁isnt	-6776
▁libr	-6777
▁pole	-6778
atched	-6779
ighted	-6780
▁Charl	-6781
▁boxes	-6782
▁couch	-6783
▁depos	-6784
▁incon	-6785
▁ingen	-6786
▁insol	-6787
▁whirl	-6788
ciences	-6789
▁Combef	-6790
▁actual	-6791
▁coarse	-6792
▁passes	-6793
▁record	-6794
▁smiles	-6795
▁wolves	-6796
▁Several	-6797
▁battery	-6798
▁current	-6799
▁dismiss	-6800
▁grasped	-6801
▁perplex	-6802
▁replies	-6803
▁species	-6804
▁wanting	-6805
urrection	-6806
▁Gardiner	-6807
▁evidence	-6808
▁external	-6809
▁governor	-6810
▁headlong	-6811
▁passions	-6812
▁reverend	-6813
▁sounding	-6814
▁Pontmercy	-6815
▁hesitated	-6816
▁impatient	-6817
▁preparing	-6818
▁substance	-6819
edy	-6820
eng	-6821
hem	-6822
arts	-6823
rois	-6824
▁Duc	-6825
▁log	-6826
▁vap	-6827
pinay	-6828
▁Olym	-6829
▁craw	-6830
▁dwar	-6831
▁onto	-6832
▁runs	-6833
▁tact	-6834
▁vest	-6835
headed	-6836
ington	-6837
itudes	-6838
▁Among	-6839
▁decor	-6840
▁fifth	-6841
▁serfs	-6842
▁stret	-6843
ceiving	-6844
ymachus	-6845
▁Mabeuf	-6846
▁bodily	-6847
▁brings	-6848
▁charms	-6849
▁dpinay	-6850
▁harmon	-6851
▁member	-6852
▁resign	-6853
▁thence	-6854
▁united	-6855
ceptible	-6856
ountered	-6857
▁Andrews	-6858
▁Cossack	-6859
▁Peppino	-6860
▁embrace	-6861
▁leagues	-6862
▁prolong	-6863
▁reverie	-6864
▁shelter	-6865
▁studied	-6866
▁breathed	-6867
▁creation	-6868
▁decision	-6869
▁gigantic	-6870
▁quantity	-6871
▁revealed	-6872
▁youthful	-6873
▁anxiously	-6874
▁establish	-6875
▁multitude	-6876
▁president	-6877
▁strangely	-6878
▁uncertain	-6879
▁commission	-6880
▁hesitation	-6881
▁reasonable	-6882
▁encountered	-6883
▁illuminated	-6884
▁overwhelmed	-6885
AC	-6886
Yes	-6887
asm	-6888
isk	-6889
nas	-6890
▁Eh	-6891
peak	-6892
plom	-6893
reci	-6894
▁Cor	-6895
▁Hen	-6896
▁dru	-6897
▁ech	-6898
▁hom	-6899
▁nod	-6900
▁ray	-6901
atson	-6902
bourn	-6903
eenth	-6904
eling	-6905
ilful	-6906
oking	-6907
stead	-6908
▁Four	-6909
▁Kang	-6910
▁Sign	-6911
▁Supp	-6912
▁VIII	-6913
▁gets	-6914
▁gift	-6915
▁hath	-6916
▁mens	-6917
akened	-6918
idents	-6919
otions	-6920
ranean	-6921
usions	-6922
▁Godal	-6923
▁March	-6924
▁blank	-6925
▁crest	-6926
▁grows	-6927
▁hears	-6928
▁marks	-6929
▁ninet	-6930
▁rules	-6931
▁store	-6932
▁beaten	-6933
▁bloody	-6934
▁chairs	-6935
▁conven	-6936
▁conver	-6937
▁darted	-6938
▁freely	-6939
▁hussar	-6940
▁ponine	-6941
▁summit	-6942
▁tables	-6943
ertained	-6944
ositions	-6945
▁October	-6946
▁curtain	-6947
▁degrees	-6948
▁despite	-6949
▁fatigue	-6950
▁library	-6951
▁message	-6952
▁sinking	-6953
▁Emmanuel	-6954
▁exchange	-6955
▁favorite	-6956
▁offering	-6957
▁troubles	-6958
▁Something	-6959
▁tolerably	-6960
▁wondering	-6961
▁comparison	-6962
▁compassion	-6963
▁enthusiasm	-6964
▁reputation	-6965
▁represented	-6966
▁significance	-6967
5,	-6968
ST	-6969
ICH	-6970
bon	-6971
cus	-6972
gly	-6973
jud	-6974
▁Bo	-6975
▁Ma	-6976
This	-6977
iend	-6978
ldom	-6979
rons	-6980
▁Ily	-6981
▁Sch	-6982
▁apt	-6983
▁ped	-6984
▁vac	-6985
iring	-6986
▁Bear	-6987
▁Moby	-6988
▁club	-6989
▁dram	-6990
▁pear	-6991
▁pile	-6992
▁puff	-6993
▁warn	-6994
aptist	-6995
ensity	-6996
▁abyss	-6997
▁appet	-6998
▁frank	-6999
▁ruler	-7000
hearted	-7001
▁Gretel	-7002
▁Watson	-7003
▁assert	-7004
▁closer	-7005
▁decide	-7006
▁joyful	-7007
▁motive	-7008
▁portra	-7009
▁reckon	-7010
▁resour	-7011
▁seldom	-7012
▁tailor	-7013
▁Martian	-7014
▁ceiling	-7015
▁discipl	-7016
▁earlier	-7017
▁intense	-7018
▁Cossacks	-7019
▁changing	-7020
▁confined	-7021
▁contract	-7022
▁patience	-7023
▁preserve	-7024
▁replaced	-7025
▁wherever	-7026
▁admirable	-7027
▁community	-7028
▁Villeforts	-7029
▁translation	-7030
▁Thrasymachus	-7031
hum	-7032
ped	-7033
▁cu	-7034
Pooh	-7035
alog	-7036
aste	-7037
mber	-7038
othe	-7039
parn	-7040
text	-7041
▁Get	-7042
▁Owl	-7043
▁Tkh	-7044
▁cig	-7045
▁gam	-7046
▁wre	-7047
akers	-7048
attle	-7049
▁bind	-7050
▁lawn	-7051
▁ling	-7052
▁rasc	-7053
▁ruff	-7054
▁ugly	-7055
ension	-7056
ground	-7057
igneur	-7058
ipping	-7059
othing	-7060
▁Joves	-7061
▁Kanga	-7062
▁Swift	-7063
▁Think	-7064
▁acted	-7065
▁bloom	-7066
▁ivory	-7067
▁swarm	-7068
▁tales	-7069
▁torch	-7070
umbling	-7071
▁borrow	-7072
▁diplom	-7073
▁guards	-7074
▁ladder	-7075
▁perish	-7076
▁yonder	-7077
▁Baptist	-7078
▁Spanish	-7079
▁awaited	-7080
▁comrade	-7081
▁feather	-7082
▁guessed	-7083
▁hunting	-7084
▁missing	-7085
▁pulling	-7086
▁captains	-7087
▁deprived	-7088
▁graceful	-7089
▁piercing	-7090
▁somebody	-7091
▁Longbourn	-7092
▁obscurity	-7093
▁tranquill	-7094
▁Combeferre	-7095
▁Thnardiers	-7096
▁directions	-7097
▁acknowledge	-7098
OW	-7099
occ	-7100
oni	-7101
she	-7102
unn	-7103
▁ta	-7104
mbly	-7105
meil	-7106
past	-7107
rase	-7108
sing	-7109
▁Jun	-7110
▁War	-7111
▁ded	-7112
▁ink	-7113
▁lur	-7114
liest	-7115
verty	-7116
▁Hold	-7117
▁aint	-7118
▁baby	-7119
▁bone	-7120
▁hind	-7121
▁lane	-7122
▁poem	-7123
▁resc	-7124
▁spar	-7125
▁Baker	-7126
▁Bened	-7127
▁Other	-7128
▁accur	-7129
▁appar	-7130
▁crept	-7131
▁disin	-7132
▁feroc	-7133
▁limit	-7134
▁owing	-7135
▁reass	-7136
▁snuff	-7137
fermeil	-7138
ilities	-7139
▁deeper	-7140
▁detach	-7141
▁doesnt	-7142
▁instit	-7143
▁lively	-7144
▁market	-7145
▁musket	-7146
▁pillow	-7147
ulations	-7148
▁Barrois	-7149
▁Michael	-7150
▁Neptune	-7151
▁candles	-7152
▁conject	-7153
▁deliver	-7154
▁discern	-7155
▁endless	-7156
▁improve	-7157
▁poverty	-7158
▁somehow	-7159
▁swiftly	-7160
▁wealthy	-7161
▁whither	-7162
▁Montparn	-7163
▁interior	-7164
▁likewise	-7165
▁marrying	-7166
▁Godalming	-7167
▁answering	-7168
▁examining	-7169
▁reasoning	-7170
No	-7171
ii	-7172
uet	-7173
▁Co	-7174
▁Cs	-7175
umps	-7176
▁BEN	-7177
▁Bah	-7178
▁Gen	-7179
▁Imp	-7180
▁Out	-7181
▁dar	-7182
0,000	-7183
break	-7184
guard	-7185
icken	-7186
stone	-7187
unter	-7188
▁Hall	-7189
▁meal	-7190
▁olig	-7191
▁salt	-7192
▁sobs	-7193
▁stol	-7194
astrop	-7195
▁envel	-7196
▁pitch	-7197
▁ruins	-7198
▁scorn	-7199
▁seats	-7200
▁skull	-7201
▁People	-7202
▁Virgil	-7203
▁Wilson	-7204
▁ashore	-7205
▁exting	-7206
▁inward	-7207
▁lately	-7208
▁reject	-7209
▁supply	-7210
▁traces	-7211
▁congrat	-7212
▁draught	-7213
▁elegant	-7214
▁haughty	-7215
▁impulse	-7216
▁newspap	-7217
▁superst	-7218
▁thanked	-7219
▁upright	-7220
▁incident	-7221
▁memories	-7222
▁merchant	-7223
▁oligarch	-7224
▁transfer	-7225
▁treacher	-7226
▁behaviour	-7227
▁immediate	-7228
▁incapable	-7229
▁religious	-7230
▁repeating	-7231
▁retreated	-7232
▁sensation	-7233
▁waistcoat	-7234
▁discussion	-7235
▁harpooneer	-7236
▁proceeding	-7237
▁travelling	-7238
▁indescribable	-7239
We	-7240
▁z	-7241
VOL	-7242
nat	-7243
sec	-7244
▁Iv	-7245
▁ga	-7246
gest	-7247
keys	-7248
ouch	-7249
udge	-7250
▁Che	-7251
▁Rem	-7252
olded	-7253
unken	-7254
▁None	-7255
▁Pall	-7256
▁bath	-7257
▁chem	-7258
▁lone	-7259
▁lust	-7260
▁pine	-7261
▁rude	-7262
▁scru	-7263
▁trip	-7264
angled	-7265
icious	-7266
rating	-7267
▁Death	-7268
▁Tkhon	-7269
▁altar	-7270
▁cemet	-7271
▁color	-7272
▁daily	-7273
▁giant	-7274
▁hated	-7275
▁indef	-7276
▁spout	-7277
▁unity	-7278
▁veins	-7279
▁wines	-7280
ciously	-7281
iveness	-7282
ressing	-7283
▁Should	-7284
▁adored	-7285
▁horrid	-7286
▁insist	-7287
▁missed	-7288
▁skelet	-7289
▁Bennigs	-7290
▁admired	-7291
▁battles	-7292
▁benevol	-7293
▁disease	-7294
▁lowered	-7295
▁slender	-7296
▁venture	-7297
▁announce	-7298
▁criminal	-7299
▁elements	-7300
▁exercise	-7301
▁intently	-7302
▁sinister	-7303
▁tranquil	-7304
▁accompany	-7305
▁catastrop	-7306
▁confident	-7307
▁procureur	-7308
▁swallowed	-7309
▁apartments	-7310
▁breathless	-7311
▁characters	-7312
▁authorities	-7313
▁threatening	-7314
▁neighborhood	-7315
▁unexpectedly	-7316
do	-7317
kv	-7318
ws	-7319
onn	-7320
rim	-7321
▁Sl	-7322
ENCE	-7323
apel	-7324
vity	-7325
▁Jac	-7326
▁Med	-7327
▁Nes	-7328
▁Tow	-7329
▁Wol	-7330
▁XIV	-7331
▁asc	-7332
▁tig	-7333
▁vul	-7334
▁yon	-7335
▁Hipp	-7336
▁Levi	-7337
▁Life	-7338
▁Mond	-7339
▁Shih	-7340
▁Wait	-7341
▁dine	-7342
▁jest	-7343
▁mode	-7344
▁slip	-7345
▁type	-7346
▁North	-7347
▁Pruss	-7348
▁Under	-7349
▁aloft	-7350
▁depth	-7351
▁fount	-7352
▁guilt	-7353
▁hosts	-7354
▁hotel	-7355
▁manly	-7356
▁older	-7357
▁owner	-7358
▁scept	-7359
▁using	-7360
▁Quince	-7361
▁autumn	-7362
▁humble	-7363
▁lesson	-7364
▁mental	-7365
▁repuls	-7366
▁shakes	-7367
▁tragic	-7368
▁adopted	-7369
▁charged	-7370
▁demands	-7371
▁drunken	-7372
▁energet	-7373
▁killing	-7374
▁mischief	-7375
▁restrain	-7376
▁youngest	-7377
▁fortnight	-7378
▁simplicity	-7379
▁uneasiness	-7380
▁probability	-7381
▁contemplation	-7382
ada	-7383
alk	-7384
cks	-7385
met	-7386
pel	-7387
tic	-7388
▁19	-7389
anim	-7390
anth	-7391
boat	-7392
maid	-7393
more	-7394
ryph	-7395
▁Haw	-7396
▁Jan	-7397
▁Mur	-7398
▁Pyl	-7399
▁Tsh	-7400
▁XII	-7401
▁axe	-7402
▁fow	-7403
▁enqu	-7404
▁flut	-7405
▁joke	-7406
▁lawy	-7407
▁noon	-7408
▁woke	-7409
▁cards	-7410
▁frost	-7411
▁gleam	-7412
▁goods	-7413
▁mathe	-7414
▁screw	-7415
▁slang	-7416
▁thief	-7417
▁Nether	-7418
▁boldly	-7419
▁confir	-7420
▁doubts	-7421
▁fitted	-7422
▁income	-7423
▁mirror	-7424
▁perpet	-7425
▁region	-7426
aneously	-7427
▁Kutzovs	-7428
▁Whether	-7429
▁answers	-7430
▁barrier	-7431
▁changes	-7432
▁chapter	-7433
▁inquiry	-7434
▁redoubt	-7435
▁scrutin	-7436
▁smaller	-7437
▁wrapped	-7438
▁disagree	-7439
▁emotions	-7440
▁increase	-7441
▁interval	-7442
▁investig	-7443
▁peaceful	-7444
▁pleasing	-7445
▁screamed	-7446
▁sergeant	-7447
▁extremity	-7448
▁interview	-7449
▁invitation	-7450
▁difficulties	-7451
asy	-7452
ops	-7453
rus	-7454
ste	-7455
whe	-7456
▁25	-7457
▁Ku	-7458
ITHE	-7459
▁flu	-7460
▁pig	-7461
▁sex	-7462
▁woo	-7463
VOLIO	-7464
isure	-7465
press	-7466
ucing	-7467
▁Love	-7468
▁Sure	-7469
▁foam	-7470
▁foul	-7471
▁hamm	-7472
▁mile	-7473
▁publ	-7474
▁unhe	-7475
asions	-7476
▁Hills	-7477
▁Lucys	-7478
▁Venus	-7479
▁banks	-7480
▁beach	-7481
▁belly	-7482
▁eleph	-7483
▁exhib	-7484
▁funny	-7485
▁intox	-7486
▁lucky	-7487
▁resol	-7488
▁scrat	-7489
mendous	-7490
ulating	-7491
▁Morris	-7492
▁elbows	-7493
▁murmur	-7494
▁overth	-7495
▁relate	-7496
▁survey	-7497
▁swords	-7498
seigneur	-7499
▁Hectors	-7500
▁William	-7501
▁balloon	-7502
▁costume	-7503
▁labours	-7504
▁partner	-7505
▁problem	-7506
▁tempest	-7507
▁assembly	-7508
▁attained	-7509
▁bleeding	-7510
▁floating	-7511
▁irresist	-7512
▁offended	-7513
▁official	-7514
▁reported	-7515
▁reserved	-7516
▁swimming	-7517
▁conducted	-7518
▁democracy	-7519
▁obedience	-7520
▁reference	-7521
▁supposing	-7522
▁suspended	-7523
▁unwilling	-7524
▁Montfermeil	-7525
▁Netherfield	-7526
▁attentively	-7527
▁Montparnasse	-7528
▁tranquillity	-7529
oh	-7530
lle	-7531
vre	-7532
zes	-7533
▁BE	-7534
▁eg	-7535
agon	-7536
asty	-7537
iate	-7538
mith	-7539
upon	-7540
zing	-7541
▁182	-7542
▁Arm	-7543
▁Dol	-7544
▁Roo	-7545
▁Roy	-7546
▁err	-7547
gthen	-7548
occup	-7549
▁Boss	-7550
▁Cont	-7551
▁Holy	-7552
▁beds	-7553
▁bowl	-7554
▁deaf	-7555
▁shes	-7556
▁sque	-7557
▁surm	-7558
▁woes	-7559
▁Ahabs	-7560
▁Peter	-7561
▁abode	-7562
▁brisk	-7563
▁brows	-7564
▁fiend	-7565
▁goats	-7566
▁patri	-7567
▁scale	-7568
▁slope	-7569
▁chains	-7570
▁collar	-7571
▁jailer	-7572
▁scenes	-7573
▁tossed	-7574
▁waking	-7575
▁accused	-7576
▁corners	-7577
▁declare	-7578
▁elapsed	-7579
▁emperor	-7580
▁flaming	-7581
▁glasses	-7582
▁leisure	-7583
▁marvell	-7584
▁refrain	-7585
▁respond	-7586
▁seizing	-7587
▁sharply	-7588
▁sixteen	-7589
▁temples	-7590
▁upwards	-7591
▁variety	-7592
▁Tomorrow	-7593
▁bitterly	-7594
▁conquest	-7595
▁cylinder	-7596
▁frowning	-7597
▁purchase	-7598
▁solemnly	-7599
▁stopping	-7600
▁Grantaire	-7601
▁assurance	-7602
▁centuries	-7603
▁exchanged	-7604
▁innocence	-7605
▁suspected	-7606
▁yourselves	-7607
▁distinction	-7608
▁examination	-7609
▁affectionate	-7610
How	-7611
uts	-7612
vts	-7613
▁Lo	-7614
When	-7615
gian	-7616
stri	-7617
▁Mel	-7618
▁ach	-7619
▁fed	-7620
▁sho	-7621
bably	-7622
orney	-7623
ridge	-7624
▁Jord	-7625
▁Phar	-7626
▁dang	-7627
▁heir	-7628
▁jaws	-7629
liness	-7630
worthy	-7631
▁Kitty	-7632
▁apple	-7633
▁exert	-7634
▁inval	-7635
▁mates	-7636
▁tones	-7637
▁waved	-7638
chamber	-7639
ression	-7640
▁Seward	-7641
▁Whales	-7642
▁bestow	-7643
▁driver	-7644
▁facing	-7645
▁graved	-7646
▁paying	-7647
▁punish	-7648
▁sunset	-7649
▁velvet	-7650
▁gravely	-7651
▁sadness	-7652
▁timidly	-7653
▁arriving	-7654
▁benefact	-7655
▁cemetery	-7656
▁domestic	-7657
▁frequent	-7658
▁interrog	-7659
▁manifest	-7660
▁valuable	-7661
▁certainty	-7662
▁narrative	-7663
▁reception	-7664
▁transform	-7665
▁discipline	-7666
▁reflections	-7667
zh	-7668
IAR	-7669
hor	-7670
▁Cy	-7671
▁Er	-7672
gels	-7673
mind	-7674
oles	-7675
▁lip	-7676
Saint	-7677
forth	-7678
irect	-7679
▁Bene	-7680
▁Boul	-7681
▁cham	-7682
▁idle	-7683
▁nigh	-7684
▁parl	-7685
▁peep	-7686
▁pool	-7687
▁rent	-7688
▁sage	-7689
resses	-7690
▁alter	-7691
▁arrow	-7692
▁demon	-7693
▁dried	-7694
▁moder	-7695
▁Empire	-7696
▁Indian	-7697
▁Nesvts	-7698
▁appeal	-7699
▁artist	-7700
▁critic	-7701
▁eighty	-7702
▁female	-7703
▁havent	-7704
▁travel	-7705
inations	-7706
▁Beneath	-7707
▁Quincey	-7708
▁closing	-7709
▁examine	-7710
▁grieved	-7711
▁returns	-7712
▁warning	-7713
▁whereon	-7714
▁Austrian	-7715
▁BENVOLIO	-7716
▁communic	-7717
▁passages	-7718
▁sciences	-7719
▁shepherd	-7720
▁carpenter	-7721
▁essential	-7722
▁happening	-7723
▁senseless	-7724
▁statement	-7725
▁transport	-7726
▁advantages	-7727
▁commanders	-7728
▁downstairs	-7729
▁protection	-7730
▁tremendous	-7731
▁exclamation	-7732
▁incessantly	-7733
▁unconscious	-7734
▁consequently	-7735
▁characteristic	-7736
.1	-7737
va	-7738
ERC	-7739
IGH	-7740
bur	-7741
iac	-7742
oir	-7743
ols	-7744
▁LA	-7745
deim	-7746
▁Beh	-7747
▁Ple	-7748
▁Sec	-7749
▁cul	-7750
▁oak	-7751
▁pup	-7752
▁unw	-7753
ainte	-7754
iated	-7755
ierce	-7756
urred	-7757
▁Full	-7758
▁Last	-7759
▁Whom	-7760
▁bust	-7761
▁gulf	-7762
▁load	-7763
▁offs	-7764
▁pink	-7765
▁prim	-7766
▁proc	-7767
▁upro	-7768
arters	-7769
itious	-7770
▁Simon	-7771
▁analy	-7772
▁bayon	-7773
▁check	-7774
▁desol	-7775
▁dilig	-7776
▁eloqu	-7777
▁heels	-7778
▁infam	-7779
▁keeps	-7780
▁lodge	-7781
▁milit	-7782
▁roads	-7783
atively	-7784
deimant	-7785
▁altern	-7786
▁career	-7787
▁laying	-7788
▁mouths	-7789
▁phrase	-7790
▁raging	-7791
▁roused	-7792
▁shared	-7793
▁stolen	-7794
▁towers	-7795
▁valley	-7796
▁vulgar	-7797
▁Bossuet	-7798
▁Eumaeus	-7799
▁aroused	-7800
▁capture	-7801
▁counted	-7802
▁dispers	-7803
▁exagger	-7804
▁howling	-7805
▁pistols	-7806
▁privile	-7807
▁rightly	-7808
▁sending	-7809
▁springs	-7810
▁dwelling	-7811
▁noticing	-7812
▁properly	-7813
▁reminded	-7814
▁startled	-7815
▁whalemen	-7816
▁belonging	-7817
▁persuaded	-7818
▁physician	-7819
▁exceedingly	-7820
▁expectation	-7821
▁constitution	-7822
2,	-7823
alv	-7824
cys	-7825
igi	-7826
lls	-7827
see	-7828
That	-7829
arth	-7830
back	-7831
pass	-7832
▁Bus	-7833
▁PAR	-7834
▁Ter	-7835
▁Tim	-7836
armes	-7837
ieves	-7838
▁Turn	-7839
▁echo	-7840
▁goss	-7841
▁imit	-7842
▁isol	-7843
▁mask	-7844
▁matt	-7845
▁meas	-7846
▁tops	-7847
blance	-7848
inking	-7849
ndered	-7850
oubted	-7851
▁Guard	-7852
▁holds	-7853
▁livid	-7854
▁locks	-7855
▁nephe	-7856
▁trunk	-7857
▁upset	-7858
▁Pallas	-7859
▁amidst	-7860
▁cities	-7861
▁herald	-7862
▁issued	-7863
▁maiden	-7864
▁transp	-7865
▁vanity	-7866
standing	-7867
▁Between	-7868
▁artific	-7869
▁classes	-7870
▁connect	-7871
▁exposed	-7872
▁footman	-7873
▁forming	-7874
▁gallant	-7875
▁grating	-7876
▁placing	-7877
▁policem	-7878
▁prosper	-7879
▁thicket	-7880
▁twisted	-7881
▁vehicle	-7882
deimantus	-7883
▁combined	-7884
▁commence	-7885
▁daybreak	-7886
▁feverish	-7887
▁foremost	-7888
▁gracious	-7889
▁gravedig	-7890
▁halfpast	-7891
▁hurrying	-7892
▁perished	-7893
▁portrait	-7894
▁services	-7895
▁surround	-7896
▁Leviathan	-7897
▁falsehood	-7898
▁quivering	-7899
▁treasures	-7900
▁marvellous	-7901
▁precaution	-7902
▁Monseigneur	-7903
▁acknowledged	-7904
▁perspiration	-7905
▁respectfully	-7906
sp	-7907
his	-7908
who	-7909
▁ah	-7910
eans	-7911
gypt	-7912
ping	-7913
resa	-7914
usal	-7915
▁Mil	-7916
▁Vra	-7917
▁XVI	-7918
▁bea	-7919
▁lam	-7920
▁stu	-7921
ardly	-7922
cians	-7923
ecamp	-7924
inged	-7925
▁Arab	-7926
▁Arch	-7927
▁Bild	-7928
▁Cons	-7929
▁Make	-7930
▁Pole	-7931
▁lend	-7932
▁push	-7933
▁rein	-7934
▁rows	-7935
▁tort	-7936
acians	-7937
olomys	-7938
▁Luigi	-7939
▁arist	-7940
▁colle	-7941
▁crush	-7942
▁diary	-7943
▁haunt	-7944
▁procl	-7945
▁sends	-7946
▁surre	-7947
▁sympt	-7948
▁Doctor	-7949
▁crownd	-7950
▁defect	-7951
▁denied	-7952
▁geomet	-7953
▁helmet	-7954
▁mantle	-7955
▁mutual	-7956
▁profit	-7957
▁recent	-7958
▁review	-7959
▁washed	-7960
quarters	-7961
▁Gatsbys	-7962
▁Hawkins	-7963
▁blushed	-7964
▁chances	-7965
▁clasped	-7966
▁develop	-7967
▁dungeon	-7968
▁injured	-7969
▁partial	-7970
▁vaguely	-7971
▁conceive	-7972
▁contents	-7973
▁conveyed	-7974
▁hospital	-7975
▁rapidity	-7976
▁relieved	-7977
▁uttering	-7978
▁wondrous	-7979
▁Bennigsen	-7980
▁offspring	-7981
▁practical	-7982
▁contradict	-7983
▁consolation	-7984
▁neighbourhood	-7985
,1	-7986
AY	-7987
vo	-7988
nto	-7989
ril	-7990
uil	-7991
▁27	-7992
onor	-7993
zure	-7994
▁Bas	-7995
▁Oer	-7996
▁Sat	-7997
▁non	-7998
alect	-7999
faced	-8000
shine	-8001
▁Germ	-8002
▁asks	-8003
▁bars	-8004
▁dict	-8005
▁empt	-8006
▁neas	-8007
▁plot	-8008
▁yawn	-8009
necess	-8010
porary	-8011
▁Henry	-8012
▁Lives	-8013
▁Quite	-8014
▁WHICH	-8015
▁await	-8016
▁darts	-8017
▁dense	-8018
▁dwarf	-8019
▁folds	-8020
▁impet	-8021
▁miser	-8022
▁oppon	-8023
▁paced	-8024
▁spies	-8025
▁trump	-8026
▁youve	-8027
henomen	-8028
▁beggar	-8029
▁betray	-8030
▁cavern	-8031
▁heroic	-8032
▁insurg	-8033
▁jewell	-8034
▁leaped	-8035
▁remote	-8036
▁scheme	-8037
▁spears	-8038
▁subter	-8039
▁subtle	-8040
▁Aristot	-8041
▁Goodbye	-8042
▁amusing	-8043
▁doorway	-8044
▁faculty	-8045
▁harbour	-8046
▁opposed	-8047
▁pushing	-8048
▁remorse	-8049
▁staying	-8050
▁torture	-8051
▁accounts	-8052
▁majestic	-8053
▁mourning	-8054
▁displayed	-8055
▁earnestly	-8056
▁gathering	-8057
▁interpret	-8058
▁occasions	-8059
▁Adeimantus	-8060
▁generation	-8061
▁increasing	-8062
▁intentions	-8063
▁intellectual	-8064
gn	-8065
OUR	-8066
son	-8067
umm	-8068
UTIO	-8069
anny	-8070
atev	-8071
oard	-8072
oked	-8073
umns	-8074
▁Bog	-8075
▁Dav	-8076
▁Don	-8077
▁Ivn	-8078
▁atm	-8079
▁dug	-8080
▁enl	-8081
▁jun	-8082
▁rud	-8083
anded	-8084
urned	-8085
white	-8086
▁Csar	-8087
▁MERC	-8088
▁Port	-8089
▁crou	-8090
▁curt	-8091
▁debt	-8092
▁dies	-8093
▁grin	-8094
▁hint	-8095
▁nest	-8096
▁oxen	-8097
▁subs	-8098
▁Green	-8099
▁Ilion	-8100
▁Maglo	-8101
▁admin	-8102
▁burnt	-8103
▁delir	-8104
▁elect	-8105
▁reins	-8106
▁swung	-8107
▁trade	-8108
▁Teresa	-8109
▁amazed	-8110
▁bishop	-8111
▁bowing	-8112
▁bullet	-8113
▁chapel	-8114
▁defeat	-8115
▁impert	-8116
▁rarely	-8117
▁riches	-8118
▁simult	-8119
▁submit	-8120
▁warmth	-8121
▁Karatev	-8122
▁Pharaon	-8123
▁appreci	-8124
▁benefit	-8125
▁climbed	-8126
▁darling	-8127
▁deceive	-8128
▁dispute	-8129
▁distrib	-8130
▁effects	-8131
▁enjoyed	-8132
▁gallery	-8133
▁glances	-8134
▁happily	-8135
▁landing	-8136
▁pretext	-8137
▁sailing	-8138
▁secrets	-8139
▁sternly	-8140
▁MERCUTIO	-8141
▁Nesvtski	-8142
▁Tholomys	-8143
▁Whatever	-8144
▁audience	-8145
▁betrayed	-8146
▁counsels	-8147
▁gardener	-8148
▁masthead	-8149
▁phenomen	-8150
▁relative	-8151
▁retained	-8152
▁sunshine	-8153
▁delivered	-8154
▁gendarmes	-8155
▁gymnastic	-8156
▁respected	-8157
▁spectacle	-8158
▁venerable	-8159
▁Wellington	-8160
▁attributed	-8161
▁bewildered	-8162
▁compliment	-8163
▁instrument	-8164
▁politeness	-8165
▁struggling	-8166
▁entertained	-8167
▁arrangements	-8168
▁disagreeable	-8169
▁insurrection	-8170
EM	-8171
OS	-8172
dam	-8173
eep	-8174
ird	-8175
ula	-8176
upt	-8177
zel	-8178
▁Bu	-8179
▁Cr	-8180
▁Je	-8181
▁Mc	-8182
leys	-8183
rise	-8184
▁Acc	-8185
▁Bru	-8186
▁Ten	-8187
▁Vul	-8188
▁ath	-8189
▁awe	-8190
▁aye	-8191
▁cub	-8192
▁hem	-8193
▁pir	-8194
▁ram	-8195
▁tid	-8196
actly	-8197
there	-8198
▁Bald	-8199
▁Duke	-8200
▁Past	-8201
▁Phae	-8202
▁gale	-8203
▁intr	-8204
▁lads	-8205
▁male	-8206
▁slew	-8207
▁spec	-8208
▁stif	-8209
▁tiny	-8210
▁unin	-8211
iation	-8212
minded	-8213
stones	-8214
▁Night	-8215
▁Nurse	-8216
▁azure	-8217
▁drift	-8218
▁etern	-8219
▁magic	-8220
▁mould	-8221
▁panic	-8222
▁pilot	-8223
▁roast	-8224
▁stove	-8225
▁towns	-8226
aturday	-8227
▁aboard	-8228
▁affirm	-8229
▁atmosp	-8230
▁bushes	-8231
▁childs	-8232
▁exquis	-8233
▁insign	-8234
▁judges	-8235
▁landed	-8236
▁lonely	-8237
▁rubles	-8238
▁sheets	-8239
▁sphere	-8240
▁sprung	-8241
▁victor	-8242
▁waving	-8243
▁attacks	-8244
▁chanced	-8245
▁columns	-8246
▁contend	-8247
▁deserve	-8248
▁ringing	-8249
▁selfish	-8250
▁terrors	-8251
▁weapons	-8252
▁whistle	-8253
▁writers	-8254
▁Alcinous	-8255
▁Although	-8256
▁Magloire	-8257
▁Valjeans	-8258
▁complain	-8259
▁eyebrows	-8260
▁murdered	-8261
▁punished	-8262
▁recently	-8263
▁skeleton	-8264
▁supplied	-8265
▁wineshop	-8266
▁Benedetto	-8267
▁arguments	-8268
▁Impossible	-8269
▁opposition	-8270
▁respectful	-8271
▁communication	-8272
ANT	-8273
ILL	-8274
isl	-8275
▁21	-8276
▁eh	-8277
bery	-8278
mast	-8279
rawn	-8280
▁Art	-8281
▁Cir	-8282
▁Del	-8283
▁fog	-8284
▁sem	-8285
▁shy	-8286
▁ult	-8287
▁voc	-8288
glass	-8289
ooked	-8290
overn	-8291
ucked	-8292
▁Vien	-8293
▁boot	-8294
▁copy	-8295
▁obli	-8296
alling	-8297
vering	-8298
▁Lucas	-8299
▁Phbus	-8300
▁avail	-8301
▁embro	-8302
▁hovel	-8303
▁moist	-8304
▁ornam	-8305
▁range	-8306
▁salon	-8307
▁score	-8308
▁stamm	-8309
▁theft	-8310
▁unite	-8311
▁veget	-8312
▁Friend	-8313
▁arrows	-8314
▁butter	-8315
▁coldly	-8316
▁divide	-8317
▁groups	-8318
▁jacket	-8319
▁joyous	-8320
▁occupy	-8321
▁ponder	-8322
▁rights	-8323
▁seamen	-8324
▁slaves	-8325
▁theirs	-8326
▁augment	-8327
▁circles	-8328
▁consist	-8329
▁furnish	-8330
▁gravity	-8331
▁mortals	-8332
▁realize	-8333
▁Faubourg	-8334
▁awakened	-8335
▁farewell	-8336
▁huntsman	-8337
▁mathemat	-8338
▁paradise	-8339
▁preoccup	-8340
▁sentinel	-8341
▁wandered	-8342
▁withdrew	-8343
▁Presently	-8344
▁apprehens	-8345
▁enveloped	-8346
▁imitation	-8347
▁philosoph	-8348
▁preferred	-8349
▁searching	-8350
▁supported	-8351
▁travelled	-8352
▁containing	-8353
▁describing	-8354
▁passionate	-8355
▁triumphant	-8356
UE	-8357
eus	-8358
ipt	-8359
omb	-8360
▁PR	-8361
▁pi	-8362
acon	-8363
alus	-8364
hole	-8365
orus	-8366
▁Tyb	-8367
▁cro	-8368
▁dus	-8369
▁pad	-8370
▁rhy	-8371
▁Bilb	-8372
▁Book	-8373
▁Kurg	-8374
▁Sire	-8375
▁Turk	-8376
▁bulk	-8377
▁bund	-8378
▁feed	-8379
▁fits	-8380
▁goal	-8381
▁liqu	-8382
▁neat	-8383
encies	-8384
ulties	-8385
vation	-8386
ydides	-8387
▁Egypt	-8388
▁Later	-8389
▁Petit	-8390
▁Place	-8391
▁Youll	-8392
▁exter	-8393
▁grain	-8394
▁groom	-8395
▁louis	-8396
▁madam	-8397
▁marin	-8398
▁physi	-8399
▁rises	-8400
▁smart	-8401
▁swine	-8402
ouncing	-8403
▁Behind	-8404
▁Signor	-8405
▁acting	-8406
▁bounds	-8407
▁carpet	-8408
▁cattle	-8409
▁images	-8410
▁indust	-8411
▁meadow	-8412
▁planks	-8413
▁prejud	-8414
▁saddle	-8415
▁saving	-8416
▁scarce	-8417
▁snatch	-8418
oubtedly	-8419
umerable	-8420
▁bullets	-8421
▁contrib	-8422
▁derived	-8423
▁endured	-8424
▁flashed	-8425
▁forests	-8426
▁lifting	-8427
▁reduced	-8428
▁reverse	-8429
▁thieves	-8430
necessary	-8431
▁Everyone	-8432
▁Parisian	-8433
▁Saturday	-8434
▁backward	-8435
▁contains	-8436
▁desirous	-8437
▁dragging	-8438
▁educated	-8439
▁lowering	-8440
▁attempted	-8441
▁customary	-8442
▁exquisite	-8443
▁faculties	-8444
▁favourite	-8445
▁unnatural	-8446
▁adventures	-8447
▁maintained	-8448
▁occupation	-8449
▁perfection	-8450
▁retreating	-8451
▁successful	-8452
▁surprising	-8453
▁application	-8454
▁battlefield	-8455
▁introduction	-8456
▁establishment	-8457
03	-8458
St	-8459
ADY	-8460
ESS	-8461
ITH	-8462
aft	-8463
bac	-8464
ban	-8465
ico	-8466
mas	-8467
pen	-8468
xem	-8469
▁Ut	-8470
bled	-8471
eled	-8472
eyed	-8473
iday	-8474
idge	-8475
▁Fin	-8476
▁Pap	-8477
▁jet	-8478
aeans	-8479
astle	-8480
entle	-8481
eshot	-8482
ialog	-8483
isive	-8484
roach	-8485
uated	-8486
▁Cape	-8487
▁Emer	-8488
▁Juno	-8489
▁Vict	-8490
▁adjo	-8491
▁bees	-8492
▁fant	-8493
▁genu	-8494
▁gild	-8495
▁nuns	-8496
▁page	-8497
▁pett	-8498
ryphon	-8499
▁Luxem	-8500
▁aided	-8501
▁backs	-8502
▁debts	-8503
▁dusty	-8504
▁goose	-8505
▁newly	-8506
▁rolls	-8507
▁scent	-8508
▁vexed	-8509
natured	-8510
▁Jordan	-8511
▁angels	-8512
▁bathed	-8513
▁contro	-8514
▁cultiv	-8515
▁legisl	-8516
▁nephew	-8517
▁pounds	-8518
▁shores	-8519
▁talent	-8520
▁thrice	-8521
▁trench	-8522
▁watery	-8523
▁Exactly	-8524
▁Tydides	-8525
▁altered	-8526
▁commiss	-8527
▁dialect	-8528
▁enlight	-8529
▁enthusi	-8530
▁machine	-8531
▁neglect	-8532
▁persist	-8533
▁propose	-8534
▁slumber	-8535
▁yielded	-8536
▁ambition	-8537
▁bursting	-8538
▁covering	-8539
▁delicacy	-8540
▁descends	-8541
▁joyfully	-8542
▁released	-8543
▁retorted	-8544
▁sunlight	-8545
▁uncommon	-8546
▁Charlotte	-8547
▁battalion	-8548
▁betrothed	-8549
▁introduce	-8550
▁objection	-8551
▁Luxembourg	-8552
▁forgetting	-8553
▁procession	-8554
▁strengthen	-8555
▁threatened	-8556
▁complicated	-8557
▁impatiently	-8558
▁innumerable	-8559
▁unconsciously	-8560
TE	-8561
PAN	-8562
orz	-8563
ppd	-8564
▁Hu	-8565
▁ze	-8566
dled	-8567
emon	-8568
fact	-8569
hess	-8570
ieth	-8571
kers	-8572
lini	-8573
omte	-8574
pent	-8575
ulch	-8576
▁Bre	-8577
▁Exc	-8578
▁Jes	-8579
▁Lat	-8580
▁Tem	-8581
▁dyn	-8582
▁fan	-8583
▁tin	-8584
abled	-8585
ersby	-8586
gered	-8587
ierre	-8588
might	-8589
ressd	-8590
warks	-8591
▁Amph	-8592
▁Tash	-8593
▁Tsar	-8594
▁borz	-8595
▁clut	-8596
▁conj	-8597
▁fath	-8598
▁jury	-8599
▁lake	-8600
strate	-8601
teenth	-8602
terest	-8603
▁Stand	-8604
▁blade	-8605
▁blast	-8606
▁dined	-8607
▁faire	-8608
▁heres	-8609
▁irreg	-8610
▁nails	-8611
▁shine	-8612
▁slipp	-8613
▁thund	-8614
▁vanqu	-8615
▁Vienna	-8616
▁advise	-8617
▁awaken	-8618
▁cheese	-8619
▁coffee	-8620
▁compar	-8621
▁devils	-8622
▁groans	-8623
▁metaph	-8624
▁oppose	-8625
▁precip	-8626
▁reluct	-8627
▁remove	-8628
▁resent	-8629
▁shower	-8630
▁stated	-8631
▁temple	-8632
▁termed	-8633
▁uproar	-8634
▁volunt	-8635
▁Emerald	-8636
▁dislike	-8637
▁dreamed	-8638
▁largest	-8639
▁thereby	-8640
▁villain	-8641
▁washing	-8642
▁whoever	-8643
▁Achaeans	-8644
▁Antinous	-8645
▁drooping	-8646
▁hundreds	-8647
▁imperial	-8648
▁invented	-8649
▁measures	-8650
▁prioress	-8651
▁relating	-8652
▁forbidden	-8653
▁grapeshot	-8654
▁observing	-8655
▁purchased	-8656
▁spreading	-8657
▁stationed	-8658
▁wandering	-8659
▁perceiving	-8660
▁resistance	-8661
▁suspicious	-8662
▁catastrophe	-8663
▁harpooneers	-8664
▁unnecessary	-8665
▁dispositions	-8666
po	-8667
ARD	-8668
OND	-8669
car	-8670
esc	-8671
gue	-8672
kov	-8673
▁Ga	-8674
apes	-8675
cien	-8676
gend	-8677
ignd	-8678
inks	-8679
ront	-8680
▁Cal	-8681
▁Ren	-8682
chers	-8683
count	-8684
erval	-8685
lying	-8686
ovnas	-8687
ushes	-8688
▁Pass	-8689
▁Whit	-8690
▁XIII	-8691
▁bald	-8692
▁barg	-8693
▁fund	-8694
▁init	-8695
▁knot	-8696
▁nail	-8697
antime	-8698
bility	-8699
castle	-8700
illing	-8701
istrat	-8702
▁Leave	-8703
▁Tshin	-8704
▁anter	-8705
▁hadnt	-8706
▁issue	-8707
▁revel	-8708
▁roofs	-8709
▁tobac	-8710
oration	-8711
▁Bildad	-8712
▁Please	-8713
▁Wicked	-8714
▁coloss	-8715
▁deemed	-8716
▁divers	-8717
▁hasten	-8718
▁humili	-8719
▁infall	-8720
▁provin	-8721
▁select	-8722
▁sharks	-8723
▁unseen	-8724
emberley	-8725
▁Gryphon	-8726
▁Olympus	-8727
▁carries	-8728
▁doubted	-8729
▁orderly	-8730
▁phantom	-8731
▁prophet	-8732
▁sepulch	-8733
▁skilful	-8734
▁thirsty	-8735
▁American	-8736
▁assassin	-8737
▁calmness	-8738
▁chariots	-8739
▁doubtful	-8740
▁dreaming	-8741
▁fourteen	-8742
▁included	-8743
▁encourage	-8744
▁horseback	-8745
▁passersby	-8746
▁pretended	-8747
▁stammered	-8748
▁tormented	-8749
▁expressing	-8750
▁foundation	-8751
▁insignific	-8752
▁lieutenant	-8753
▁questioned	-8754
▁sentiments	-8755
▁temperance	-8756
▁illustrious	-8757
AG	-8758
Ch	-8759
UC	-8760
axe	-8761
boy	-8762
cad	-8763
mir	-8764
aind	-8765
bons	-8766
ilet	-8767
lest	-8768
post	-8769
▁doc	-8770
▁fel	-8771
▁fug	-8772
▁lap	-8773
▁map	-8774
▁rug	-8775
erson	-8776
ients	-8777
inger	-8778
othes	-8779
▁ante	-8780
▁bisc	-8781
▁clad	-8782
▁duel	-8783
▁dumb	-8784
▁hing	-8785
▁manu	-8786
▁owed	-8787
▁puts	-8788
▁sack	-8789
▁subd	-8790
▁surv	-8791
▁swam	-8792
▁symb	-8793
atives	-8794
brance	-8795
eryton	-8796
ifully	-8797
uesday	-8798
▁Could	-8799
▁Dutch	-8800
▁Priam	-8801
▁abund	-8802
▁campf	-8803
▁chill	-8804
▁clung	-8805
▁defin	-8806
▁discl	-8807
▁eagle	-8808
▁fence	-8809
▁holes	-8810
▁ineff	-8811
▁solic	-8812
▁songs	-8813
▁stoop	-8814
▁thigh	-8815
▁union	-8816
▁walks	-8817
▁Basque	-8818
▁Church	-8819
▁Edward	-8820
▁Gentle	-8821
▁Philip	-8822
▁Vulcan	-8823
▁Woking	-8824
▁center	-8825
▁dismay	-8826
▁flowed	-8827
▁gladly	-8828
▁immort	-8829
▁inches	-8830
▁indisp	-8831
▁induce	-8832
▁longed	-8833
▁morrow	-8834
▁nerves	-8835
▁pallor	-8836
▁plains	-8837
▁scound	-8838
▁serene	-8839
▁strife	-8840
▁worlds	-8841
▁Pastrin	-8842
▁dazzled	-8843
▁ecstasy	-8844
▁essence	-8845
▁extingu	-8846
▁fancies	-8847
▁fearing	-8848
▁lacking	-8849
▁lessons	-8850
▁priests	-8851
▁regards	-8852
▁rewards	-8853
▁serving	-8854
▁shields	-8855
▁strikes	-8856
▁Meantime	-8857
▁afforded	-8858
▁attempts	-8859
▁bulwarks	-8860
▁capacity	-8861
▁converse	-8862
▁frontier	-8863
▁groaning	-8864
▁proposal	-8865
▁rattling	-8866
▁referred	-8867
▁standard	-8868
▁stirring	-8869
▁suitable	-8870
▁vicinity	-8871
▁Pemberley	-8872
▁discussed	-8873
▁eagerness	-8874
▁ferocious	-8875
▁irregular	-8876
▁regiments	-8877
▁resembles	-8878
▁sparkling	-8879
▁spiritual	-8880
▁uncomfort	-8881
▁Phaeacians	-8882
▁atmosphere	-8883
▁complexion	-8884
▁expressive	-8885
▁impatience	-8886
▁personally	-8887
▁pocketbook	-8888
▁provisions	-8889
▁respecting	-8890
▁preparation	-8891
▁respectable	-8892
▁superiority	-8893
▁transferred	-8894
▁wretchedness	-8895
0,	-8896
3,	-8897
EP	-8898
ba	-8899
bow	-8900
gon	-8901
ora	-8902
yes	-8903
yth	-8904
▁IS	-8905
Then	-8906
five	-8907
oday	-8908
open	-8909
▁Squ	-8910
▁Yan	-8911
▁nap	-8912
▁rat	-8913
ATION	-8914
achel	-8915
arian	-8916
ensed	-8917
izard	-8918
mates	-8919
▁Conf	-8920
▁Gold	-8921
▁Hist	-8922
▁Mock	-8923
▁Stop	-8924
▁agon	-8925
▁bagg	-8926
▁econ	-8927
▁fist	-8928
▁gasp	-8929
▁sket	-8930
affold	-8931
estern	-8932
herent	-8933
urable	-8934
▁Cross	-8935
▁Laert	-8936
▁Smoll	-8937
▁accus	-8938
▁bells	-8939
▁brist	-8940
▁climb	-8941
▁dimly	-8942
▁ladys	-8943
▁novel	-8944
▁recon	-8945
▁rigid	-8946
▁spell	-8947
▁stole	-8948
▁sweat	-8949
itively	-8950
ocratic	-8951
▁Busoni	-8952
▁Champs	-8953
▁Fierce	-8954
▁Juliet	-8955
▁Turtle	-8956
▁abomin	-8957
▁advers	-8958
▁bucket	-8959
▁expend	-8960
▁fulfil	-8961
▁growth	-8962
▁hoping	-8963
▁hounds	-8964
▁louder	-8965
▁paraly	-8966
▁repent	-8967
▁robbed	-8968
▁rubbed	-8969
▁stable	-8970
▁tasted	-8971
▁tavern	-8972
▁traged	-8973
▁verses	-8974
▁virgin	-8975
atisfied	-8976
▁Meryton	-8977
▁Spartan	-8978
▁avoided	-8979
▁bandits	-8980
▁drowned	-8981
▁glowing	-8982
▁grounds	-8983
▁marched	-8984
▁planted	-8985
▁praying	-8986
▁reigned	-8987
▁satisfy	-8988
▁seeming	-8989
▁stamped	-8990
▁tobacco	-8991
▁winding	-8992
▁Bingleys	-8993
▁Spernski	-8994
▁appetite	-8995
▁approved	-8996
▁childish	-8997
▁grandeur	-8998
▁measured	-8999
▁scaffold	-9000
▁security	-9001
▁shutters	-9002
▁steadily	-9003
▁wrinkled	-9004
▁Baptistin	-9005
▁conceived	-9006
▁confirmed	-9007
▁converted	-9008
▁extending	-9009
▁honorable	-9010
▁neglected	-9011
▁possesses	-9012
▁prevailed	-9013
▁sorrowful	-9014
▁willingly	-9015
▁insurgents	-9016
▁gravedigger	-9017
▁acquaintances	-9018
▁disappointment	-9019
WR	-9020
any	-9021
bod	-9022
elf	-9023
jac	-9024
jon	-9025
lld	-9026
noe	-9027
ods	-9028
▁24	-9029
▁Pi	-9030
▁Sn	-9031
Jean	-9032
They	-9033
arme	-9034
ifix	-9035
lass	-9036
odes	-9037
ouss	-9038
umet	-9039
▁Ros	-9040
▁XXX	-9041
▁bat	-9042
▁cob	-9043
▁gas	-9044
▁hal	-9045
▁net	-9046
▁omn	-9047
▁sed	-9048
▁tub	-9049
icpus	-9050
lyses	-9051
otism	-9052
pires	-9053
▁Aute	-9054
▁Fore	-9055
▁Half	-9056
▁Toul	-9057
▁beam	-9058
▁beha	-9059
▁belt	-9060
▁bids	-9061
▁buzz	-9062
▁dece	-9063
▁emph	-9064
▁lung	-9065
▁mute	-9066
▁reco	-9067
▁scor	-9068
▁suck	-9069
▁tram	-9070
▁verd	-9071
athieu	-9072
▁FRIAR	-9073
▁Frank	-9074
▁Heres	-9075
▁Speak	-9076
▁abhor	-9077
▁blaze	-9078
▁entry	-9079
▁fools	-9080
▁grott	-9081
▁liken	-9082
▁petty	-9083
▁plump	-9084
▁punct	-9085
▁rhyth	-9086
▁silly	-9087
▁spoil	-9088
▁surve	-9089
▁weigh	-9090
▁wiped	-9091
▁Thanks	-9092
▁amused	-9093
▁enters	-9094
▁hearth	-9095
▁intern	-9096
▁livres	-9097
▁nostri	-9098
▁parall	-9099
▁statue	-9100
▁stores	-9101
▁Auteuil	-9102
▁Brother	-9103
▁Clerval	-9104
▁baggage	-9105
▁begging	-9106
▁bravest	-9107
▁cracked	-9108
▁flatter	-9109
▁handful	-9110
▁horrors	-9111
▁inherit	-9112
▁inspire	-9113
▁methods	-9114
▁prudent	-9115
▁puzzled	-9116
▁renewed	-9117
▁secured	-9118
▁shortly	-9119
▁stirred	-9120
▁theatre	-9121
▁trained	-9122
▁victims	-9123
▁alarming	-9124
▁anothers	-9125
▁catching	-9126
▁disaster	-9127
▁effected	-9128
▁festival	-9129
▁inconven	-9130
▁polished	-9131
▁respects	-9132
▁selected	-9133
▁smallest	-9134
▁wondered	-9135
▁arranging	-9136
▁ascertain	-9137
▁attendant	-9138
▁divisions	-9139
▁fantastic	-9140
▁tradition	-9141
▁whiteness	-9142
▁battalions	-9143
▁displeased	-9144
▁penetrated	-9145
▁constructed	-9146
▁neighboring	-9147
▁significant	-9148
6,	-9149
7,	-9150
9,	-9151
ya	-9152
AIN	-9153
IOL	-9154
ONT	-9155
TOR	-9156
agr	-9157
ano	-9158
oug	-9159
tis	-9160
▁Ni	-9161
▁Vl	-9162
▁Wr	-9163
IGHT	-9164
IOLA	-9165
Well	-9166
clay	-9167
dles	-9168
elix	-9169
lope	-9170
olic	-9171
olly	-9172
omme	-9173
onic	-9174
ruck	-9175
they	-9176
uity	-9177
when	-9178
▁App	-9179
▁Pip	-9180
▁dew	-9181
▁gor	-9182
▁hay	-9183
▁jer	-9184
▁lun	-9185
ansas	-9186
avour	-9187
comed	-9188
ursed	-9189
▁Aunt	-9190
▁Hear	-9191
▁LADY	-9192
▁WITH	-9193
▁acts	-9194
▁bolt	-9195
▁bron	-9196
▁brut	-9197
▁fain	-9198
▁fasc	-9199
▁mock	-9200
▁nave	-9201
▁nort	-9202
▁ramp	-9203
▁tack	-9204
▁vile	-9205
asting	-9206
haired	-9207
rained	-9208
remony	-9209
uteous	-9210
▁Chuan	-9211
▁Felix	-9212
▁House	-9213
▁Spain	-9214
▁ghast	-9215
▁globe	-9216
▁rings	-9217
▁ropes	-9218
▁selfs	-9219
▁thumb	-9220
▁tread	-9221
▁unacc	-9222
PANIOLA	-9223
▁Excuse	-9224
▁Hatter	-9225
▁Hurrah	-9226
▁Lucien	-9227
▁Merion	-9228
▁Plumet	-9229
▁Tashte	-9230
▁adding	-9231
▁barbar	-9232
▁create	-9233
▁cursed	-9234
▁deaths	-9235
▁gloves	-9236
▁hunted	-9237
▁invari	-9238
▁justly	-9239
▁lawyer	-9240
▁midday	-9241
▁overfl	-9242
▁patter	-9243
▁revolt	-9244
▁transf	-9245
▁volume	-9246
▁Charles	-9247
▁Densovs	-9248
▁Harkers	-9249
▁assault	-9250
▁condemn	-9251
▁dangers	-9252
▁floated	-9253
▁gardens	-9254
▁genuine	-9255
▁guarded	-9256
▁nowhere	-9257
▁refusal	-9258
▁torrent	-9259
▁warlike	-9260
▁weighed	-9261
▁ceremony	-9262
▁dropping	-9263
▁fortunes	-9264
▁preceded	-9265
▁rejoiced	-9266
▁replying	-9267
▁speedily	-9268
▁stooping	-9269
▁terribly	-9270
▁vigorous	-9271
▁Aristotle	-9272
▁Noirtiers	-9273
▁assistant	-9274
▁attacking	-9275
▁believing	-9276
▁countries	-9277
▁determine	-9278
▁fireplace	-9279
▁fulfilled	-9280
▁innkeeper	-9281
▁stockings	-9282
▁swineherd	-9283
▁wellknown	-9284
▁HISPANIOLA	-9285
▁apparition	-9286
▁artificial	-9287
▁calculated	-9288
▁detachment	-9289
▁discharged	-9290
▁favourable	-9291
▁objections	-9292
▁tumultuous	-9293
▁Champslyses	-9294
▁endeavoured	-9295
▁hospitality	-9296
▁necessarily	-9297
▁recognizing	-9298
▁subterranean	-9299
▁simultaneously	-9300
Em	-9301
All	-9302
cat	-9303
pef	-9304
ski	-9305
uer	-9306
was	-9307
▁Af	-9308
▁Es	-9309
estr	-9310
hile	-9311
ocks	-9312
riel	-9313
ylus	-9314
zard	-9315
▁Jup	-9316
▁Lou	-9317
▁Mus	-9318
▁Ori	-9319
▁Six	-9320
▁ecc	-9321
▁lee	-9322
▁rab	-9323
andtw	-9324
cipit	-9325
ieces	-9326
ilion	-9327
▁Papa	-9328
▁Soph	-9329
▁cens	-9330
▁duck	-9331
▁ejac	-9332
▁fixd	-9333
▁irre	-9334
▁leap	-9335
▁navy	-9336
▁tipt	-9337
▁trib	-9338
▁usur	-9339
icient	-9340
retion	-9341
▁Catal	-9342
▁alley	-9343
▁beams	-9344
▁champ	-9345
▁crims	-9346
▁draws	-9347
▁gover	-9348
▁knoll	-9349
▁pious	-9350
▁poems	-9351
▁shaft	-9352
▁snowy	-9353
▁tramp	-9354
▁widow	-9355
▁Around	-9356
▁Bilbin	-9357
▁Govern	-9358
▁alarms	-9359
▁apples	-9360
▁copper	-9361
▁courts	-9362
▁faster	-9363
▁guided	-9364
▁hammer	-9365
▁judged	-9366
▁needle	-9367
▁ribbon	-9368
▁rivers	-9369
▁sleepy	-9370
▁spared	-9371
cription	-9372
▁Barclay	-9373
▁Pequods	-9374
▁banquet	-9375
▁blazing	-9376
▁blowing	-9377
▁buttons	-9378
▁descent	-9379
▁dresses	-9380
▁frantic	-9381
▁ghastly	-9382
▁healthy	-9383
▁islands	-9384
▁mixture	-9385
▁motives	-9386
▁protest	-9387
▁readers	-9388
▁reserve	-9389
▁sleeves	-9390
▁spectre	-9391
▁sunrise	-9392
▁Highness	-9393
▁Minister	-9394
▁Pastrini	-9395
▁dazzling	-9396
▁deserved	-9397
▁gendarme	-9398
▁likeness	-9399
▁marching	-9400
▁shrugged	-9401
▁stepping	-9402
▁symptoms	-9403
▁Frenchmen	-9404
▁beauteous	-9405
▁enclosure	-9406
▁instances	-9407
▁intending	-9408
▁irritated	-9409
▁operation	-9410
▁prolonged	-9411
▁readiness	-9412
▁regarding	-9413
▁responded	-9414
▁churchyard	-9415
▁confession	-9416
▁diningroom	-9417
▁prodigious	-9418
▁victorious	-9419
▁accordingly	-9420
▁appearances	-9421
▁embarrassed	-9422
▁impressions	-9423
▁inclination	-9424
▁remembrance	-9425
▁resemblance	-9426
▁concentrated	-9427
▁embarrassment	-9428
AND	-9429
iel	-9430
nut	-9431
tur	-9432
two	-9433
▁22	-9434
▁dw	-9435
ager	-9436
bear	-9437
born	-9438
cont	-9439
fold	-9440
rire	-9441
ymph	-9442
▁Lav	-9443
▁Rom	-9444
▁Tit	-9445
▁hun	-9446
▁pip	-9447
▁tut	-9448
adays	-9449
aning	-9450
anter	-9451
itect	-9452
lings	-9453
thats	-9454
▁Down	-9455
▁Scar	-9456
▁Scot	-9457
▁Winn	-9458
▁Wolf	-9459
▁XVII	-9460
▁bite	-9461
▁bury	-9462
▁cash	-9463
▁cure	-9464
▁hare	-9465
▁limb	-9466
▁mend	-9467
▁riot	-9468
▁twit	-9469
WRENCE	-9470
aneous	-9471
iverse	-9472
mighty	-9473
ridges	-9474
▁Athen	-9475
▁based	-9476
▁bliss	-9477
▁clums	-9478
▁evils	-9479
▁local	-9480
▁sable	-9481
▁schol	-9482
▁stake	-9483
▁verge	-9484
uminous	-9485
▁Brujon	-9486
▁Sister	-9487
▁Tybalt	-9488
▁brandy	-9489
▁crowns	-9490
▁deform	-9491
▁drawer	-9492
▁easier	-9493
▁ensued	-9494
▁escort	-9495
▁faults	-9496
▁ghosts	-9497
▁hearty	-9498
▁impass	-9499
▁injury	-9500
▁insens	-9501
▁intrig	-9502
▁knight	-9503
▁learnt	-9504
▁offers	-9505
▁roared	-9506
▁salute	-9507
▁stupef	-9508
▁visits	-9509
▁Germans	-9510
▁Livesey	-9511
▁Towards	-9512
▁Tuesday	-9513
▁approve	-9514
▁crowned	-9515
▁disgust	-9516
▁elderly	-9517
▁frowned	-9518
▁parting	-9519
▁refresh	-9520
▁stature	-9521
▁studies	-9522
▁swaying	-9523
▁Grecians	-9524
▁anteroom	-9525
▁articles	-9526
▁blessing	-9527
▁blushing	-9528
▁brightly	-9529
▁countrys	-9530
▁detached	-9531
▁fragment	-9532
▁mustache	-9533
▁nostrils	-9534
▁propriet	-9535
▁secondly	-9536
▁tenderly	-9537
▁training	-9538
▁uniforms	-9539
▁villages	-9540
▁wrinkles	-9541
▁Gentlemen	-9542
▁adjoining	-9543
▁attentive	-9544
▁civilized	-9545
▁clearness	-9546
▁dispersed	-9547
▁energetic	-9548
▁impressed	-9549
▁personage	-9550
▁shivering	-9551
▁whistling	-9552
▁literature	-9553
▁neighbours	-9554
▁newspapers	-9555
▁reappeared	-9556
▁regimental	-9557
▁resembling	-9558
▁sensations	-9559
▁spectators	-9560
▁travellers	-9561
▁enthusiastic	-9562
▁irresistible	-9563
▁mechanically	-9564
▁instinctively	-9565
▁uncomfortable	-9566
94	-9567
As	-9568
bru	-9569
▁Mt	-9570
aine	-9571
give	-9572
inth	-9573
oofs	-9574
uary	-9575
wart	-9576
▁Ere	-9577
▁Hsi	-9578
▁Ins	-9579
▁Put	-9580
▁Sal	-9581
▁Ser	-9582
▁XXV	-9583
▁cud	-9584
▁dou	-9585
▁lid	-9586
▁nay	-9587
▁sly	-9588
ammed	-9589
armed	-9590
atted	-9591
conte	-9592
dling	-9593
prise	-9594
stant	-9595
ubber	-9596
uster	-9597
▁Bill	-9598
▁Chan	-9599
▁Comp	-9600
▁Dron	-9601
▁Fort	-9602
▁Read	-9603
▁Stay	-9604
▁Volt	-9605
▁Wang	-9606
▁York	-9607
▁cage	-9608
▁cere	-9609
▁chur	-9610
▁clen	-9611
▁cove	-9612
▁cuir	-9613
▁joys	-9614
▁leve	-9615
▁merc	-9616
▁rash	-9617
▁shag	-9618
bruary	-9619
estors	-9620
urious	-9621
▁Jesus	-9622
▁Peleg	-9623
▁adorn	-9624
▁chall	-9625
▁coinc	-9626
▁ditch	-9627
▁exile	-9628
▁fates	-9629
▁hasty	-9630
▁heros	-9631
▁rival	-9632
▁roses	-9633
▁seeks	-9634
▁shots	-9635
▁sixth	-9636
▁token	-9637
▁verse	-9638
aration	-9639
renched	-9640
▁Kansas	-9641
▁Temple	-9642
▁barely	-9643
▁behalf	-9644
▁gossip	-9645
▁limits	-9646
▁medium	-9647
▁melted	-9648
▁paving	-9649
▁pearls	-9650
▁prover	-9651
▁shirts	-9652
▁sleigh	-9653
▁traced	-9654
▁tyrann	-9655
▁vainly	-9656
▁wander	-9657
▁warned	-9658
▁weaker	-9659
oussaint	-9660
▁Laertes	-9661
▁authors	-9662
▁balance	-9663
▁confirm	-9664
▁contact	-9665
▁crawled	-9666
▁crimson	-9667
▁delayed	-9668
▁feature	-9669
▁goodbye	-9670
▁kissing	-9671
▁muskets	-9672
▁outward	-9673
▁prefect	-9674
▁strides	-9675
▁sweetly	-9676
▁LAWRENCE	-9677
▁Remember	-9678
▁Tashtego	-9679
▁allusion	-9680
▁consists	-9681
▁diamonds	-9682
▁elephant	-9683
▁monument	-9684
▁overhead	-9685
▁politely	-9686
▁precipit	-9687
▁proceeds	-9688
▁procured	-9689
▁receives	-9690
▁restless	-9691
▁severity	-9692
▁shooting	-9693
▁softened	-9694
▁strained	-9695
▁sufficed	-9696
▁vehicles	-9697
▁continual	-9698
▁deposited	-9699
▁fragments	-9700
▁hereafter	-9701
▁inhabited	-9702
▁matchless	-9703
▁policeman	-9704
▁satisfact	-9705
▁staggered	-9706
▁struggled	-9707
▁sweetness	-9708
▁accomplish	-9709
▁accordance	-9710
▁attentions	-9711
▁benefactor	-9712
▁commanding	-9713
▁resolutely	-9714
▁twentyfour	-9715
withstanding	-9716
▁goodnatured	-9717
▁communicated	-9718
▁determination	-9719
▁inevitability	-9720
OU	-9721
ex	-9722
bec	-9723
oup	-9724
vat	-9725
yre	-9726
▁cy	-9727
▁ma	-9728
agne	-9729
apan	-9730
shka	-9731
▁FOR	-9732
▁Law	-9733
▁MAN	-9734
▁Off	-9735
▁Ret	-9736
▁hue	-9737
▁obl	-9738
asper	-9739
blest	-9740
eches	-9741
icide	-9742
iddle	-9743
ochus	-9744
ograp	-9745
osity	-9746
▁Chao	-9747
▁Comm	-9748
▁Laws	-9749
▁Part	-9750
▁Shes	-9751
▁beer	-9752
▁canv	-9753
▁carb	-9754
▁cruc	-9755
▁eyel	-9756
▁hull	-9757
▁inse	-9758
▁loaf	-9759
▁murd	-9760
▁pled	-9761
▁prel	-9762
▁raft	-9763
▁recl	-9764
▁sits	-9765
▁ward	-9766
Picpus	-9767
escend	-9768
inkled	-9769
velope	-9770
▁Horse	-9771
▁Maire	-9772
▁brick	-9773
▁brush	-9774
▁dares	-9775
▁hedge	-9776
▁humor	-9777
▁intol	-9778
▁lamps	-9779
▁logic	-9780
▁pilgr	-9781
▁posts	-9782
▁raven	-9783
▁relax	-9784
▁scand	-9785
▁slack	-9786
▁sober	-9787
▁strip	-9788
▁swore	-9789
▁tools	-9790
▁twent	-9791
▁vigor	-9792
▁witch	-9793
vention	-9794
▁Kurgin	-9795
▁Thetis	-9796
▁Yanina	-9797
▁carved	-9798
▁compet	-9799
▁cudgel	-9800
▁dialog	-9801
▁finest	-9802
▁owners	-9803
▁rebell	-9804
▁repair	-9805
▁retain	-9806
▁shaken	-9807
▁suited	-9808
▁toilet	-9809
▁Jupiter	-9810
▁Rosings	-9811
▁beaming	-9812
▁billows	-9813
▁casting	-9814
▁cuirass	-9815
▁depends	-9816
▁fishery	-9817
▁glories	-9818
▁granted	-9819
▁groaned	-9820
▁halfway	-9821
▁leaping	-9822
▁merrily	-9823
▁mission	-9824
▁notions	-9825
▁railway	-9826
▁scatter	-9827
▁surpass	-9828
▁trusted	-9829
▁February	-9830
▁careless	-9831
▁counting	-9832
▁decisive	-9833
▁disappro	-9834
▁disguise	-9835
▁electric	-9836
▁firmness	-9837
▁garments	-9838
▁involved	-9839
▁pursuing	-9840
▁searched	-9841
▁striving	-9842
▁universe	-9843
▁viscount	-9844
▁welcomed	-9845
▁yielding	-9846
▁Toussaint	-9847
▁appearing	-9848
▁complaint	-9849
▁decidedly	-9850
▁galloping	-9851
▁greatness	-9852
▁ingenious	-9853
▁witnesses	-9854
▁gentleness	-9855
▁peculiarly	-9856
▁positively	-9857
▁succession	-9858
▁whispering	-9859
▁PetitPicpus	-9860
▁arrangement	-9861
▁surrounding	-9862
▁extinguished	-9863
,2	-9864
So	-9865
aos	-9866
cel	-9867
non	-9868
pri	-9869
vil	-9870
▁Ot	-9871
▁Pf	-9872
▁SE	-9873
angs	-9874
atru	-9875
azed	-9876
otic	-9877
thus	-9878
time	-9879
ulet	-9880
wing	-9881
▁Fif	-9882
▁Sac	-9883
▁anc	-9884
▁bef	-9885
▁ber	-9886
▁lug	-9887
▁viv	-9888
There	-9889
iethe	-9890
isely	-9891
itute	-9892
terns	-9893
▁Amid	-9894
▁Call	-9895
▁FROM	-9896
▁Keep	-9897
▁Phry	-9898
▁Tart	-9899
▁bark	-9900
▁desc	-9901
▁desk	-9902
▁doth	-9903
▁idol	-9904
▁keys	-9905
▁levi	-9906
▁ment	-9907
▁orph	-9908
▁pite	-9909
▁shun	-9910
▁sore	-9911
▁sout	-9912
▁unav	-9913
▁wits	-9914
▁Argos	-9915
▁Marys	-9916
▁Seine	-9917
▁brood	-9918
▁cliff	-9919
▁coron	-9920
▁crawl	-9921
▁folks	-9922
▁herds	-9923
▁	-9924
e	-9925
t	-9926
a	-9927
o	-9928
n	-9929
h	-9930
i	-9931
s	-9932
r	-9933
d	-9934
l	-9935
u	-9936
m	-9937
c	-9938
w	-9939
f	-9940
g	-9941
,	-9942
y	-9943
p	-9944
b	-9945
.	-9946
v	-9947
k	-9948
I	-9949
T	-9950
A	-9951
;	-9952
H	-9953
M	-9954
S	-9955
x	-9956
W	-9957
?	-9958
C	-9959
P	-9960
B	-9961
!	-9962
E	-9963
j	-9964
N	-9965
q	-9966
O	-9967
R	-9968
D	-9969
F	-9970
z	-9971
:	-9972
L	-9973
G	-9974
Y	-9975
<	-9976
>	-9977
V	-9978
J	-9979
"	-9980
1	-9981
U	-9982
0	-9983
K	-9984
2	-9985
X	-9986
3	-9987
8	-9988
5	-9989
4	-9990
7	-9991
6	-9992
9	-9993
Q	-9994
'	-9995
Z	-9996
